/**
  ******************************************************************************
  * @file    network_data_params.c
  * @author  AST Embedded Analytics Research Platform
  * @date    2026-06-05T14:09:01+0800
  * @brief   AI Tool Automatic Code Generator for Embedded NN computing
  ******************************************************************************
  * Copyright (c) 2026 STMicroelectronics.
  * All rights reserved.
  *
  * This software is licensed under terms that can be found in the LICENSE file
  * in the root directory of this software component.
  * If no LICENSE file comes with this software, it is provided AS-IS.
  ******************************************************************************
  */

#include "network_data_params.h"


/**  Activations Section  ****************************************************/
ai_handle g_network_activations_table[1 + 2] = {
  AI_HANDLE_PTR(AI_MAGIC_MARKER),
  AI_HANDLE_PTR(NULL),
  AI_HANDLE_PTR(AI_MAGIC_MARKER),
};




/**  Weights Section  ********************************************************/
AI_ALIGNED(32)
const ai_u64 s_network_weights_array_u64[33921] = {
  0x3c366e21beb9fde8U, 0x3f3f32c43ef65e7dU, 0xbd3f2cf9bd9fc417U, 0x3e53db00bef7bef7U,
  0xbd4daa413e1b5972U, 0xbba3a2a3bf2d9c64U, 0x3d54b8913e5aadeeU, 0x3e8c5f453e5d0994U,
  0x3dd1bbd53e622c4cU, 0x3ce6a752bcc5612eU, 0x3d0ebab8befb01b9U, 0x3d9e53eb3f0754e0U,
  0xbea45853be08ae31U, 0x3edcfd39be8cb073U, 0x3a406bf13ed8e45fU, 0xbeda6338bdc94f4fU,
  0x3df674843ec6148bU, 0x3d82d64bbed7fae9U, 0x3d00cac83d259b74U, 0x3df54070bf07792dU,
  0x3e04a8a5be9185f6U, 0x3ea8cefabf152936U, 0xbd980f11be03f151U, 0x3ef6d7bf3eace501U,
  0xbe0670a03eebd5e0U, 0xbcf51213befca640U, 0xbcf51c4e3e9cf42fU, 0x3a54be863e8a8ae3U,
  0xbeb23b5bbe159587U, 0x3cdbcd0c3ec2a306U, 0x3e9533eb3f09881cU, 0x3d4f11fc3e206420U,
  0x3dc20e0e3ea7e6adU, 0xbd5f953a3c832dc4U, 0x3ed9a3313f2ecca1U, 0x3d9da10cbea7cbebU,
  0x3df11370bece548bU, 0x3de86268beb1f516U, 0xbe6103f63f12b105U, 0x3e916d4bbf1f1962U,
  0xbd5b03653ea97775U, 0xbad39a6dbe84848dU, 0xbe35ed8ebe9ed58cU, 0xbcc058a53ec7f6dcU,
  0x3d4862243e4909e0U, 0x3d4e0b1a3e8cfa5cU, 0x3e4bcc72bea33afdU, 0xbe2f87463cde3069U,
  0x3ced44c63e5cfd01U, 0xbe80b3a6beaa7689U, 0x3d26073b3eae3f1eU, 0xbe8291d3bca66ee6U,
  0xbc45ccf7beb153bcU, 0x3db791bbbe989d2eU, 0xbd8ed9d63dd9ce1aU, 0x3dbda0cc3eb618e5U,
  0x3c5aca33be815b8cU, 0x3d8885f2be3694f9U, 0x3e040b3cbec9f1acU, 0xbd7ad7913ecfa775U,
  0x3db3b04ebe9d31afU, 0xbee7d6c7be4e9ac3U, 0x3ec104b3bea0e160U, 0x3ebb8ef1bde61c5eU,
  0x3d1e5b86be86872cU, 0xbd6d69483f1908b9U, 0x3e2969d5bdb78fcbU, 0x3bb02ee23eadd7f2U,
  0xbd4c94f2be5e5e66U, 0x3e08d719beb08e33U, 0xbdc62dc73eed6745U, 0xbe3d7a6fbe75f53eU,
  0x3da2e44cbeadb9edU, 0x3dbb74313effff54U, 0xbec16881bf2f7cdaU, 0xbd4224c2bdb793c0U,
  0x3e789870bf0b315cU, 0x3de5c72abec0b04aU, 0x3dfb1a733ed76d2dU, 0x3dd37f0b3c8610e8U,
  0x3de32d2e3f0ff868U, 0xbdb385783eb5226cU, 0xbe755780bdcf9c4dU, 0xbd7534fa3d90689aU,
  0xbda3d4223eb2e809U, 0x3e067926bf1b8faeU, 0x3ce19863bea5d305U, 0x3e3a162d3e5de27eU,
  0xbb47645d3d89ca96U, 0x3d5d3762be933f12U, 0x3d9a0122be9de38aU, 0xbdee97ca3dba4f1eU,
  0x3da7a2583ea04e32U, 0xbdc956f23ee1c491U, 0x3e8133033e7f6762U, 0xbe171bfc3edd54f9U,
  0x3d8bea6abe6a4af7U, 0x3d8c9a6ebeafe581U, 0x3e8e5ebd3f25dbf1U, 0x3e2e7489be017c38U,
  0x3ca594fc3ea0d195U, 0x3db519523dde1e6bU, 0xbd176e90be42c63fU, 0xbe5e11c13e91f29bU,
  0x3e183cefbeed405aU, 0xbdcb98983dd98531U, 0x3db709d93e7234ceU, 0x3db9ddc03e9df4ddU,
  0x3e280ce0bdd4f98aU, 0xbd7f21b3be8ef2e0U, 0x3f0735b33e998693U, 0x3f0e783e3f71d5caU,
  0x3e882b5fbf1bf8ebU, 0x3da9b7443f068b4fU, 0x3dad6ff8be46a30cU, 0x3debd5b8bdd74f8eU,
  0x3e26f136bec5ffd2U, 0x3d212c663e5acde0U, 0x3e548f40be40d4c7U, 0xbe4306a3bd7a55bcU,
  0xbec575713e8dab03U, 0x3e68c86c3ed008f5U, 0xbd9481a7bee3c88cU, 0x3d36e0df3ee0d8d0U,
  0xbd375bff3f063a4fU, 0xbd2e1b5cbd965d00U, 0x3e0d17b1be8d003cU, 0x3d55ef97be731d0aU,
  0xbcab5146bc66ef2bU, 0xbecab65d3de02aa8U, 0x3e083e9a3e6e026fU, 0x3d86fa473e5100c5U,
  0x3d8a364cbe7b6103U, 0xbcc50faabd60f085U, 0x3e5d1aae3e79078cU, 0xbe858b2cbe822889U,
  0x3f06e7f63f31d0abU, 0x3e46d2d33f6aca22U, 0x3e6b2dc3be75cd2dU, 0xbdcdf7953f27a556U,
  0xbe4aa9d93d94944aU, 0xbe7e457e3e9c6a2aU, 0x3e5947693e2ee5d6U, 0xbf6fffe83e875ec0U,
  0x3d979b673f2e58feU, 0x3d82fd67be0205f0U, 0xbe2cb8753e98d7c8U, 0x3ec637a8bf9813a5U,
  0x3d5dada63d9b09e0U, 0x3e9f9954bf1a35dfU, 0x3e2210da3d7414b1U, 0x3f20f5f4bd597d3eU,
  0xbb93b3f63ee0c9e9U, 0x3e1355e0bdf7d2f2U, 0x3df026a93eb22faaU, 0x3d30f8903d7e842dU,
  0x3ee8cf10bf01bfb0U, 0xbd73144f3f1b2a4eU, 0x3e67ec1abc7fe1d0U, 0xbe08eb1e3f08362cU,
  0x3ec66ae53d7d834dU, 0x3d96c8f43f019ea5U, 0x3f0ae5b23f6e492aU, 0x3e891495bd825f9aU,
  0x3d7df886bdf2b73bU, 0x3d17be4d3c21edebU, 0x3f804c853e6f9105U, 0xbda2e51cbf0ee41bU,
  0x3e9e992c3dacb9fdU, 0x3df530f7be0afeb2U, 0x3e40b5ffbd8562baU, 0x3d357b1f3d7e904dU,
  0x3e7946923cf4283aU, 0xbd807ebf3ec4e840U, 0x3d87f0b6bf52172aU, 0xbe17b8ae3f234f3dU,
  0x3df39faa3e8f18d2U, 0x3e9437cfbf81b72fU, 0xbdc5e3c83ed57fe1U, 0x3ec53c33bdb34e47U,
  0x3cab1baebeb5e92cU, 0x3e02dc1fbdbdba4eU, 0x3efd160d3dee7ec7U, 0x3d9553263da98e30U,
  0x3d9e7ed2bd8a2734U, 0x3e4762023cf575bdU, 0x3ec019eebd239bb7U, 0x3bc8666c3ecd06ccU,
  0x3d3ad2d3bd8fa1f7U, 0xbf819d3d3f5bca83U, 0xbf04d29fbea13e43U, 0xbeaacc37be4342f6U,
  0x3e06498ebe381795U, 0xbe109bb63f02aa43U, 0x3b89d4e03e459f1dU, 0x3d7aa44f3e9d0669U,
  0x3e4285b8bcded390U, 0xbe26dc8ebe7fa7d7U, 0xbcc36dd63ed9dbfcU, 0x3e46f9b1bc8a40c2U,
  0x3e8da4e8bd86a261U, 0x3e135d153eb6620fU, 0x3cb690c73f7f7b7aU, 0x3d725c4cbf161e78U,
  0xbeb1477dbf1f3aaeU, 0xbe0298f1bf32ed33U, 0x3e87b2083f2df2e9U, 0xbccaba5d3d342a9fU,
  0x3ce8c5bb3eb58fadU, 0xbb7716073ea047d4U, 0x3e518121bdc94254U, 0xbe8596b33f0970d8U,
  0x3e5b892f3ed1e038U, 0x3eff5200bed93fb4U, 0x3e40013dbf761607U, 0x3f0224253edd9d3dU,
  0x3c2797cabf4fab9bU, 0x3ead1213bdfa4dcaU, 0x3dbfe428be092882U, 0xbed2818dbea3275bU,
  0x3e86e4203d78ad91U, 0xbd02b0bd3edb3952U, 0xbe958b55bed15544U, 0x3ea14a1c3eabec0eU,
  0x3e9d08ab3ce599d3U, 0xbc322323be0b8111U, 0x3db624323ea9e8ecU, 0x3dc90cdb3c0c7e73U,
  0x3d60bec23e88f9faU, 0x3da8f48c3db841faU, 0x3dd4e1df3d23c4c4U, 0xbdbfb0e03edfe4caU,
  0xbde9a3c1bdc7974aU, 0x3dd35dabbf755715U, 0x3d77ea8b3d513d41U, 0x3e67de563eab2361U,
  0xbf0e6bd83f09912aU, 0x3c205925be18c7cbU, 0xbecd273dbeba5d17U, 0xbe87c407bea8ff15U,
  0xbd80df03bda287bfU, 0xbe34dbd63ebc8b6cU, 0x3d9ba43fbcff29e7U, 0x3e36ebd6be2224fbU,
  0xbc657dbe3cf520d7U, 0x3d64c7373ebb4f73U, 0xbe1cbc20bd85b832U, 0x3f08d910bd009b9aU,
  0x3e0a56acbd8ac3fbU, 0xbd9ef98c3e4e2cefU, 0x3f01160b3cf09487U, 0x3e4231b13df15223U,
  0xbd8a912f3f176acbU, 0xbead3f9bbdabde4dU, 0x3e8d44bdbed7cf64U, 0x3b9b9fc83ca1abc1U,
  0x3bc91e44bee64010U, 0x3c8a4413bf39aac5U, 0x3ab2678b3ef5f770U, 0x3d2144de3efb3b5bU,
  0xbb95c00e3f90fa18U, 0xbb0e04d7bf06c566U, 0x3b7c3d683ef61f4fU, 0x3c73d2ce3f4fce2eU,
  0x3e01d28a3ebda4b3U, 0xbe098669bece0a46U, 0x3c422882bee90baeU, 0xbd442f4d3edd9ff9U,
  0xbd8953b8befdb296U, 0xbc951166bf61c98aU, 0x3c5ec5babee7963cU, 0x3dc74bd2bf24b55dU,
  0x3d2845c83f099836U, 0x3c222f1b3e7deac1U, 0x3cd3544a3ed03087U, 0x3c9be88b3eaf8e08U,
  0xbd48f042be116a3cU, 0xbd1e4559bf142438U, 0x3cabec633ed5b8c7U, 0xbbb11f283f2a34caU,
  0xbcc83b9b3eeb17a2U, 0xbb31b8a8bc3e87e3U, 0x3a849426bef5debdU, 0x3cca659fbef0eb4fU,
  0xbc8a37bdbf0f1df4U, 0xbbd506d4bf024ce6U, 0x3c708679bed77b1fU, 0xbd263dce3efaec08U,
  0x3c6ee166bf15f39aU, 0xbd5ab9d3bedc1440U, 0x3c0d751d3ee0c53dU, 0x3b86a8563d56d4d4U,
  0x3c18fb343e055a8eU, 0x3b82acd0bc9308a0U, 0xbd9be73c3eda8db8U, 0xbc0a67933f63dd3fU,
  0x3d980ab3bee70e30U, 0x3d551c67bf8d850dU, 0x3d69e09cbee9001cU, 0xbd3feaff3ee861bdU,
  0x3c7a5d3bbf022474U, 0xbb974036beeddf72U, 0xbd4c7db8bec42c59U, 0xbc8bb118be3158c7U,
  0xbcbb34f63ef2ce42U, 0x3c84338a3f1b1ca4U, 0xbb9542b6beed5ae4U, 0x3cd459a13e9d61fdU,
  0xbd6cca2e3f1c2f6aU, 0xbc70a0473f185751U, 0x3cf1c842bee39ed6U, 0xbb99efb0bf0c896dU,
  0xbbfa43b13dfb7cddU, 0xbbac7b263ee79c14U, 0x3a580084bf085658U, 0x3b1fe2f0bef5bfccU,
  0xbb56ec1e3ebe3662U, 0xbdac7eb63e7d5d92U, 0x3b5c7f35bf3f5f7eU, 0xbb001714bf40c7c0U,
  0x3c7ab2693f0aa109U, 0xbb96bf973f08334dU, 0xbcdc6c1ebf0f902aU, 0xbc546d8e3f0aebf3U,
  0x3cdc52a0bed7d50fU, 0x3d7357133f344bd5U, 0xbc5cb0e93efc2370U, 0x3a7611273f012963U,
  0x3b3a9311be3ea8c2U, 0x3cb0b136bf06dd9fU, 0xbddc84293f11fff0U, 0xbd10f649bf15c313U,
  0xbb889db83f50cee9U, 0x3d6b8c033f367328U, 0x3d2ba45a3f1462c6U, 0xbc8ced5b3ec9a737U,
  0x3b8a8dbc3f0664d2U, 0xbbd6e370beef8023U, 0xbd124f10be04fb93U, 0xbb9d9550bf07caa6U,
  0xbc5f1d433f0b355dU, 0xbd36d311bf1f93afU, 0x3d5c5e403e8c14dbU, 0x3d7ccbccbf0603feU,
  0xbd096b31bf2005acU, 0xb9aef5c6be319e53U, 0xbc03fab53e5a539bU, 0xbca9bb873e5a53ecU,
  0xbca10e773f04ae3fU, 0x3b4367a5bef35388U, 0xbcd323623f803e03U, 0x3c16f9ccbef0def0U,
  0xb984c2463e8d9cc5U, 0x3bbc3c453e059264U, 0x3d07da6bbeed5cbaU, 0x3c4ec025bf02b4b4U,
  0xbd1842673edacf98U, 0x3c09fdd63f03a6fbU, 0x3cd4e69f3f17753dU, 0x3c7df850bf03fccdU,
  0xbcc1cdb2bf3b7645U, 0xbd1c6981befca993U, 0x3b4ffa1a3efa900fU, 0xbd3bdd3f3ef0123eU,
  0x3db88921bed5c410U, 0x3b119dd73de2d595U, 0xbc7c99a3bf6e1ff0U, 0xbd4ca2ed3ee1e7e5U,
  0x3c3224293e0ab750U, 0x3c2ca4793efecc25U, 0x3bd000e93f366c4fU, 0x3c2828aa3f2b415cU,
  0xbc4786863d0b7fc3U, 0x3c6e0bac3ef4911aU, 0xbc9ac898bf446841U, 0x3bf30f133e91827cU,
  0xbbd0d0a5bee6d72bU, 0xbc4021083edc38ccU, 0x3b6720e8be1317eaU, 0x3c359661beec3404U,
  0x3cae21dcbef077f3U, 0xbd3ebd4cbe844694U, 0xbd28d9dcbf2378a2U, 0xbb4cfc013ebea407U,
  0x3ccc1c55bef83b23U, 0x3f3cffe03f050683U, 0xbd204debbda26e2bU, 0x3df80636beef304dU,
  0x3e6d611fbece9e27U, 0xbd223c02bf3622eeU, 0xbd63e97f3e64801aU, 0x3e8324273dae6eabU,
  0xbd983620bea24990U, 0xbe6a7ac93ef7c70dU, 0x3dd9d46fbe6a9c02U, 0x3d886a093f209469U,
  0xbe3ed9edbe709484U, 0x3ef2473c3d4e163dU, 0x3d9eccad3ed39c3aU, 0x3e49581cbee3950aU,
  0xbcc842b73eb2f55aU, 0x3d5e32c2befee497U, 0xbe4f80603dd93654U, 0x3c7eb46fbdbc436dU,
  0x3d9e238cbd0c0814U, 0x3e781cebbe694fe5U, 0x3ca6fe16bdd4e408U, 0x3effe7093e62598fU,
  0xbdcc89883f0e9f7cU, 0x3ddb1167becdf8beU, 0x3b9c263a3ee084beU, 0xbe0c78f73e26f88aU,
  0x3e6b5101bc84a2cfU, 0xbe407b223e02ecafU, 0x3e8ec3813f0f1243U, 0xbcbc27b43eb7acefU,
  0x3ceda7cc3e2e8580U, 0x3e8efc35bec5e98fU, 0x3e95b7c73ece715fU, 0xbd49cd82beb2e74dU,
  0x3d9891c9beef672eU, 0x3d4d437dbe4aafd3U, 0xbe7ffb233f275a23U, 0x3e32eb3abf0638c7U,
  0x3d9e64633eebf5c5U, 0x3e1a750dbec17a92U, 0xbdacd106bec3f551U, 0x3dc217663ebd63b5U,
  0x3d8aea533e9a646bU, 0x3e53d2863ed5febeU, 0x3dd9200bbd346d65U, 0x3e3325f9bea20951U,
  0x3e43c9173e260ff9U, 0x3d822a3bbcfea201U, 0x3c21e6673ece3b65U, 0xbd6faa78bba93fd6U,
  0x3e886049bea5b71cU, 0x3decfe2bbe62df8fU, 0x3cb565fb3eabe943U, 0x3d590fb73ea295b8U,
  0x3e21d1d5be79ffb3U, 0x3e4baa9dbdf7b19aU, 0x3ec6a8d6bddb78a7U, 0xbda9a7ac3f175117U,
  0x3e10ebb6bea7cf4cU, 0xbe0e1df6be40e30dU, 0x3ee339ffbe59d555U, 0x3f0efc6e3dcb8fb8U,
  0x395b79fabe524c03U, 0xbddfb4683f0d8c4aU, 0x3c9701cfbcd3126cU, 0x3dde834f3eec6d19U,
  0x3e05d847bcfa5b59U, 0x3e2d2cfcbe2d1796U, 0xbe7c58da3f001936U, 0x3cc35e6ebe8d31a8U,
  0x3e021e08be4feb3fU, 0xbd041b2d3f045990U, 0x3e4721e83d2d3ec2U, 0xbe0ece8dbe0aaef2U,
  0x3ea28c35bf30e733U, 0x3e42e1a9be9a5405U, 0xbdbcc68f3ed861f2U, 0x3ca878adbcc45487U,
  0x3d00d7b43ee520afU, 0xbd9cd7003eff6b63U, 0xbe82daccbe9a15d6U, 0xbe71dd753ecfc8ebU,
  0x3c3174213eb7c802U, 0x3e0569a4bde499bbU, 0xbce42deabe56836bU, 0x3e5176de3ed9c45cU,
  0xbdcb9bd4be7fa9eaU, 0x3d6d71e8bed5f40fU, 0x3d79bb55bec81ce0U, 0xbd791dcdbec46596U,
  0x3d6e3d4b3eb90e84U, 0xbe53f25d3f086708U, 0x3e4baccf3e3a8607U, 0xbe22c4213f091f16U,
  0xbd28e5cbbeb1cedbU, 0x3d61ac90bedfb417U, 0x3df9d8733f301f5eU, 0x3ddf4caabe00d165U,
  0x3d0935893ef21617U, 0x3d2f77aa3e147349U, 0x3cf4e151bd1c8505U, 0xbe173c6f3ef834b2U,
  0x3e3e4073bf000026U, 0x3e4cca23bd9ed540U, 0xbbdd94643e76dc2fU, 0x3d9f54793ed4d071U,
  0x3e9968ccbe920220U, 0xbd83b7d8bf078109U, 0x3ed806073f1ba773U, 0x3f14c9713f79f4caU,
  0x3dae04a4bf07f552U, 0xbd036dd03f18a452U, 0x3e3c3553be0a63deU, 0xbd59e300bc2d9309U,
  0xbcefaab0beb9cb5cU, 0xbc015c643e4ae7f4U, 0x3e78773cbeee76b0U, 0xbe46556bbdbc5cd7U,
  0xbe984f8a3e9254c2U, 0x3e522a0f3f296aa4U, 0x3d0e0144bf03a639U, 0x3d94caa93f02aa23U,
  0xbdab73343f0c8719U, 0xbbd7f75f3ce50c54U, 0x3e49de5cbe0741d5U, 0x3db34549bec1f7f8U,
  0xbc57f71a3dc7c889U, 0xbab545013e0ccfacU, 0x3ca6ce703e3b923eU, 0xbe6a14393d54c9a1U,
  0x3dc1b544bebf5e3fU, 0x3d7cac20be8a75c1U, 0x3d4704423e0620a2U, 0x3e37c6f3bdd222fcU,
  0x3da6a1b4bee0752cU, 0x3ea88a403d31047bU, 0xbf0115e0bd82e8b8U, 0xbc8e9d27bd5de87dU,
  0xbc7f07ed3cfeb9bbU, 0xbdaa75f33db5b1b7U, 0x3eebd015beb113deU, 0x3e183c9c3e058febU,
  0x3d92bc23bcad3694U, 0xbe0710e0bd22505cU, 0x3d3a0ea2bd52539cU, 0x3eb5b3483da66800U,
  0xbea940a3bd1761d3U, 0x3d82ff01be03a991U, 0x3d0e28d33e0042e6U, 0xbe0d96d3beb54e76U,
  0x3ec98da83e07c7b9U, 0xbd3cb2b93d461dc6U, 0x3aff0840bdcd32c8U, 0x3d60f4d0bd8d06f3U,
  0x3d77f169bcc59199U, 0xbdeb4d1c3d813b8dU, 0x3e50a02e3cd9339eU, 0x3d814d063dd6cfcfU,
  0xbd942a0abe3a6486U, 0xbd183c1d3cf2dd7eU, 0x3ef46554be284f72U, 0x3dff6ac83dce491dU,
  0x3e436213bd917a67U, 0xbe69f680bdf00f59U, 0x3f21c6d9be0c3dcaU, 0xbe9c6646bf1c9c4aU,
  0x3ddc61cbbd78d0bcU, 0xbdeb74c73d1b53caU, 0xbeabef13bdafccd5U, 0xbcebb93c3eb1bba6U,
  0x3d99e681be937d14U, 0x3d29d7a7bb431dcbU, 0xbc4400d8be02077cU, 0x3d42ede0bd800af0U,
  0xbda1e482bcf7c02dU, 0xbd45c726bc2abd49U, 0x3cc614a13dcdfe7bU, 0x3da19089be4aeb7cU,
  0xbce18860bd315abeU, 0x3cbc8103be7862a5U, 0xbdbee091bdb8f53bU, 0x3c2be3423d81e3ddU,
  0x3dc1b005bda53945U, 0xbd6ce26ebd4a005dU, 0x3e6f089cbbf4e73dU, 0xbdcfd0253e02d2d3U,
  0xbe090c28bd708982U, 0xbda55616bd1265fdU, 0x3d448fc33dcfb641U, 0xbdf42b82bec37c44U,
  0x3eb726133dffb4aeU, 0xbe9dafacbca7c9abU, 0x3e89758a3df92c51U, 0x3ee8201a3eba24bcU,
  0xbe4734f4bc276020U, 0xbdddbd96be45034aU, 0xbec61effbd716f8aU, 0xbebfa857beffde9fU,
  0xbd43fa1b3f188fafU, 0x3f1665243daf2245U, 0xbf4dbf7abde599acU, 0xbf719f20bc2029b0U,
  0x3dc1be893d9ebd6eU, 0xbefef0ba3ec59e96U, 0xbed6882fbddee04eU, 0x3e6ba968beb3c881U,
  0xbe2439973d945bacU, 0xbdbbf5cabdb9e166U, 0x3d631debba119604U, 0xbed6b2783e618241U,
  0xbf25bee4bd3068c5U, 0xbe061cabbea0f4f4U, 0x3e3c5208be344a84U, 0xbe71ffe4bfb7362eU,
  0x3e9f8560beed9bf1U, 0xbcf89fba3efc224dU, 0xbe2175ea3dd01fbeU, 0x3e648655bd8464e2U,
  0x3e174ddc3db2be57U, 0xbe1aeccb3d151c6eU, 0x3e9e5f3d3d892f0eU, 0xbef6b6e13eed4a20U,
  0x3e8948f13d9debf4U, 0xbe72c3bfbee14120U, 0x3f04a185be2f4d9aU, 0x3bb2644d3e85e2e6U,
  0x3c29d476bcf601c1U, 0xbec7f7b63cc5290dU, 0x3eb6ef83bf30d234U, 0xbf0278763e92fcf0U,
  0x3e3a6e3a3df38764U, 0x3d8969343d911351U, 0xbc0f2ab7be15a74aU, 0xbd997b583fc952d6U,
  0xbb20bab2bede28c0U, 0x3ea38cbdbbeeeb89U, 0xbdd17679bd82ccbdU, 0xbd3658d5bf70a834U,
  0x3bff4b1bbc27ab75U, 0xbcbbe433be8576b6U, 0x3e8d09083e808540U, 0x3e153240bcf0bd05U,
  0x3c8db0683e1520c3U, 0xbe89885d3e100692U, 0x3dbb2b393fbbc254U, 0x3ded1adfbda6dc20U,
  0xbe11a19abd87e4d2U, 0x3cdde1d3bda96053U, 0xbe6834a8bd649a4aU, 0xbe1d1bd83d2d2a96U,
  0xbe4f9d1ebf19ef6dU, 0xbd19c13ebb912c37U, 0x3eea72c53e2e6b47U, 0xbc005d3cbeec9387U,
  0x3d1c5ee8be1188dcU, 0x3e2c86943e2f4955U, 0xbde5a83ebea2eb16U, 0xbc1758533ddb5d5cU,
  0xbd170694be8ebe31U, 0x3e885ed83c26d494U, 0xbe310c72bebd17fdU, 0x3e8404ad3e30f5d2U,
  0xbd45e6dfbe908df6U, 0x3ee085503e44fa62U, 0xbdb0d324bee19534U, 0x3e59fb823e113071U,
  0x3d970e553d71e220U, 0xbcdf19133cc3ea97U, 0x3eea6d5cbe0c4376U, 0x3f11932abd800c25U,
  0xbe632f75bdc68a5eU, 0x3b1e69cebd337d91U, 0x3d137b6bbddea11cU, 0x3d5034cb3c38bc9bU,
  0x3e8fabe03e60b072U, 0x3bba74dcbd520e2aU, 0xbe7022febe04ef08U, 0xbe224781bda196ccU,
  0xbcd79548bdebe1b6U, 0x3dfce053be243acfU, 0x3e1912dbb898b943U, 0xbe23f424be21828bU,
  0x3d70f1a03deaa51bU, 0xbe26a0e73d606122U, 0x3e24e409bc677d4bU, 0xbe4354613d1929daU,
  0x3e868de93d8dc97eU, 0x3d8bdc2dbe88c0f0U, 0x3e81e577bde6f406U, 0x3dbd8fec3e3b5fc3U,
  0xbe7a5c78bd3c664cU, 0xbdc6e8413c94cf7aU, 0x3e1056133daed9e3U, 0xbee6e035bf499116U,
  0xbd30ffb73e883a15U, 0xbd8d0a28bda5d218U, 0xbeaa3fcebd7752dcU, 0xbdafb9f1be1b99b1U,
  0x3d861146bafee4f7U, 0x3f0e8d853c3115feU, 0xbe70d7c2be25b6a0U, 0x3d9e7ce33e8bd68fU,
  0x3d2954f63e21ce03U, 0xbcb1a19c3d95fb23U, 0xbda30f713d992a40U, 0xbe16fae23df56a0cU,
  0x3efdaf4dbb8b643bU, 0xbe5db1d43e99e3baU, 0xbd013e11befd140cU, 0x3cbc071fbe6deae8U,
  0x3e9fe6213e235161U, 0x3e2744af3e0522ddU, 0x3e736a9e3c51488bU, 0x3f00662ebdeaeb4eU,
  0x3b861a21bd859835U, 0xbe28861ebd78790fU, 0x3d359f60be41bad2U, 0x3d96ed7bbd124a2aU,
  0x3e08dadebd936112U, 0x3e7b1e75bd9cf9d4U, 0xbdcffbf5be0ecee4U, 0xbe0f6a363e01df93U,
  0x3eacb8aabf376eeeU, 0x3ec618fdbe3922bfU, 0x3dd7c0bfbced8cd9U, 0x3ee1d02ebea63d24U,
  0xbd0b5732bf1e002cU, 0x3cfdc7473e6e2d19U, 0xbd660706bdde8908U, 0x3d14c6513e2b1276U,
  0x3e07165d3ea79debU, 0xbeb63d02bede1caeU, 0x3f7ce0ccbeab6210U, 0xbd6c2e0dbe5f6c29U,
  0x3e959631be87f8c6U, 0xbd2bc1423e34dd60U, 0xbd787fd6bdb178e8U, 0x3e10e2803e57a890U,
  0x3e955708bea7ddf5U, 0x3e83725abd914da9U, 0xbead9a14bdd733ceU, 0xbe0f71fcbd9a495fU,
  0x3df5500a3eb1b0b2U, 0x3cc67716be6d3c8eU, 0x3db8518abed8a45bU, 0xbe422370bd4cc83eU,
  0x3cd3ef4bbb8b7f51U, 0xbebb89443f06441dU, 0x3ce3aa133dbb86b2U, 0x3d01e3b2be2d5b76U,
  0x3ea893c7be362626U, 0x3dbc709fbd7217a6U, 0x3e815d1abd8c7ebbU, 0x3dbfd7c73eb04859U,
  0xbd16e288bdd04523U, 0xbeaa98c0be99b03aU, 0x3db787c63d8df28eU, 0xbe624406bf8fda44U,
  0xbe8700cd3ee63f46U, 0xbe1b53a53d282979U, 0xbe6bfe553dda82caU, 0xbeafe567bc5783f1U,
  0x3ce73e06be4df7c3U, 0x3c82e0003dc6a305U, 0xbec95ee73e96529eU, 0xbe78ad323e243225U,
  0xbd2977033ddc7011U, 0xbd62c624be704acaU, 0x3eabd9ce3e5e0144U, 0x3e92e2b9bde2a787U,
  0x3cc06efebda42340U, 0x3e8fa0bebd2dd228U, 0x3db82c4bbe851e7cU, 0x3ec6ff1fbd0827f8U,
  0x3f072c4c3d4b5550U, 0x3e9a43943e109b29U, 0x3eb520a73a89f072U, 0xbd569a253ddee6a7U,
  0x3e65a1b7be8198aaU, 0x3ca0d01c3dd352d4U, 0xbcfcd6ddbeb28b64U, 0xbe3e6506bd8b7f8eU,
  0x3de44b94bdaf3855U, 0x3f37bfa83ec94febU, 0xbeccbff73db605fdU, 0xbec6ffa8bf869b6cU,
  0xbeab9dd93e149348U, 0xbeea82713ea4a000U, 0x3f0532083db88b6aU, 0xbebafe053ea13422U,
  0x3e1fa67bbe6df3b8U, 0xbef389e8be8b5d73U, 0x3e5808c03e1a04eaU, 0xbe0d8e96bea23dc8U,
  0xbd7f3ababec490d6U, 0x3ea039553ecc4a83U, 0x3e988e313f099cc2U, 0xbe2901f53fa8cdbeU,
  0xbdd2ee963eabb8ccU, 0x3e9b57c0bde7dd4fU, 0xbc55f9b33e12c0b4U, 0x3dba3e0bbf78e05aU,
  0xbed035f13fb8ea84U, 0xbe49b7b83dbfc1ecU, 0xbf7809643f86b27aU, 0x3e714c393f5bd062U,
  0xbee0e18b3d7cf510U, 0xbe90eabbbf8e0c32U, 0x3e0053403e6e180eU, 0xbd02bd453f1eb14bU,
  0xbe284012be12c57bU, 0xbc8ed59e3e1b66c8U, 0xbcbaf13f3bcbcdd7U, 0x3f732d4abd47202eU,
  0x3d6915b4be92e794U, 0x3ecdebff3bf7165aU, 0xbda883113e9fd8acU, 0x3d5b44c5bf240987U,
  0xbe2950493e3fa1cbU, 0x3f1dd4fc3f7b10a7U, 0xbe9a18883f4c8294U, 0xbe2b47a23c14379cU,
  0x3e25e5b23ef339aeU, 0x3e9623a83ef6ba26U, 0x3ead08573ced8e08U, 0x3eda20a1bf4858cbU,
  0x3e5698923f9eb7a9U, 0x3f80d24e3e531e73U, 0xbeb4eeebbf58f04dU, 0x3f5e28313ef15dedU,
  0xbd6ac15ebe8b5718U, 0xbdd7891a3f065c02U, 0xbf0e6e4ebf197623U, 0xbe52bf1fbedd9d52U,
  0x3f1f54a0be15718fU, 0xbf2554dfbf39a5f2U, 0x3e03ffc8be8bc557U, 0xbf54a6aa3f18f283U,
  0x3f6e75cc3e24a33dU, 0xbee0a1cbbe835258U, 0x3f349b2a3e272055U, 0x3fa761c83ec4645fU,
  0x3f1d7c843ed6fc68U, 0x3f9705abbeae7358U, 0xbf3cfdb3be2d2e71U, 0xbed043ff3f142b1eU,
  0x3bc1ca9abd03d9e2U, 0x3d543cb83d7ef5ecU, 0x3ce688fc3dd5333aU, 0xbdcb561dbc47ac99U,
  0x3da9a778bebb1e68U, 0x3cd346aebe3b9e6eU, 0xbd1bf3033cd59934U, 0x3e0662f8bd37515cU,
  0xbc3c745dbe60020cU, 0x3eb24c0c3e039b5eU, 0xbec3214ebd8360ccU, 0xbcaf5d7dbe483e96U,
  0x3d5dfbbbbbd54713U, 0xbe1c6f89bdf387b9U, 0x3ef1fec1bea2bb13U, 0x3da3d573bd27bbf9U,
  0x3d9962a9bd03efa5U, 0xbdaebd3a3d09c95fU, 0x3cf3f863bd50e036U, 0x3df5f5533e0f928fU,
  0xbe23d641bbc57d8eU, 0x3cf58b8bbc42bc61U, 0x3d1c950e3d02c539U, 0xbdff1ea9bebcd36fU,
  0x3f0313543d5de98cU, 0xbe1de4483de4c643U, 0xbcfc5b8e3d2e69c4U, 0xba1685b13ce3f666U,
  0x3dd545843d1d1303U, 0xbe126bdbbd0d4b44U, 0x3e4fb841bd3de24bU, 0xbd89d6ad3d7dc714U,
  0xbc4a0b08bda0e920U, 0x3ce99cc9bd959c7bU, 0x3e8cfe92bcbc6853U, 0x3d5385f03e125f53U,
  0x3d328e283b7d3ee1U, 0xbee07cd2be02ad1dU, 0x3f08c90bbbe1f624U, 0xbe954baebeffc85fU,
  0x3da91ede3d415803U, 0xbde570923c7f62b8U, 0xbea8077bbd252c78U, 0x3d6680123f04a004U,
  0x3d793fc5bf3a3dc5U, 0x3ccf4d7b3bffbdb9U, 0xbd9af87f3d6d4c2fU, 0x3d8024713bdcb2bfU,
  0xbd181f7dbd81ec3dU, 0xbce78822be01197aU, 0x3d504505bcf38d83U, 0x3dcd9696be11b20aU,
  0xbb32fa8bbcd75f48U, 0xbdaf90873d89efdfU, 0x3d6c6948bdb5a98bU, 0xba0e6124bd364667U,
  0xbdc9b3c7bd9c9666U, 0xbd8edd09bd01ff27U, 0xbbb007f13d1a9706U, 0x3c969e3d3cf6afa7U,
  0xbdc96f04bd52268eU, 0x3cce19ae3d6b9f38U, 0x3de5a99cbd663031U, 0xbe598fadbec76afbU,
  0x3db82c52bc34bbd2U, 0xbeb0ec01bea74c40U, 0x3d3748c2be964374U, 0xbe1c9af73e089327U,
  0x3f262f66bf350902U, 0xbed6277d3dc6ad56U, 0xbd9b7d01bcac2ec8U, 0x3ef7b2383dd76770U,
  0xbd1cde86beb60837U, 0x3e9ee2e8bd0dbf80U, 0x3ed4564ebe399edcU, 0x3e442183bdfbe680U,
  0xbcd2d1f2be91bb80U, 0x3e2f2bcb3e34fd34U, 0x3f0282593e94d1e3U, 0xbf2a59633d89b287U,
  0x3f2da0f03dc30832U, 0xbdc5eb893ed6b768U, 0x3d308eb5bcfb5ff9U, 0xbe8aa9ea3dfc4b86U,
  0x3ed170743c9aa33dU, 0xbe023fd63cd98e8dU, 0x3e78cb4cbd439fdbU, 0xbe9cc2963ec3edc1U,
  0xbe526a21be77da2bU, 0xbdd3975f3e9fb253U, 0xbd8b9bacbf11e483U, 0x3e95e8453d6ad8edU,
  0xbe01f0413d13edf8U, 0x3e873a5f3eec8933U, 0xbed6de1fbbadb219U, 0x3dcd71c9bd8daf78U,
  0xbf05edf6be88e770U, 0xbed7b94a3e1c3901U, 0xbe3ba8e63d5a4636U, 0xbc4d14cfbe59aabcU,
  0x3ef0f670bda57633U, 0x3db12138bf1dad45U, 0xbe08f90fbd8b0ae6U, 0xbf1a8f9bbe601428U,
  0x3ee1cfabbeaffbfbU, 0x3efc2dcfbb73206fU, 0x3c5fa81dbed06915U, 0x3eda9618be1ffe8aU,
  0xbd8086d33e939f10U, 0xbea961f83da6ae8fU, 0x3e924e82bdc0008aU, 0x3e118b7ebe77b285U,
  0xbd1550363d81e368U, 0x3dbcdf943e46dbf3U, 0xbe244cc3bdcbffa1U, 0x3f232eb9be56d47bU,
  0x3eb46a573e0cdc63U, 0xbe87c33abef640ceU, 0xbd1a176f3ee364a1U, 0x3dbc33513d116ab3U,
  0xbecd5c0f3cf5a6b2U, 0xbde7b22bbe53af01U, 0xbe5dc66ebdc8e50dU, 0xbf14bd493dff2a42U,
  0xbda358e43e23cf28U, 0x3dae46bcbd8509b6U, 0x3eb1900b3ec6cd59U, 0xbe0b037c3eeb7259U,
  0x3ddfb60abc96739eU, 0xbe3579fdbe0a76c9U, 0xbcd698da3f63cb45U, 0x3e3eddbdbe46834bU,
  0x3e3925293e6f8075U, 0x3ecbc60fbd4df763U, 0xbd4e6aa3be873632U, 0xbead54c53d193cf4U,
  0xbdd7ea82bdedef48U, 0x3c35d6883f093bebU, 0xbeb772323ece8fe5U, 0x3f3426c43d831b1aU,
  0x3c80dd8cbe24aeefU, 0x3d0034943f03e5d5U, 0xbeb8e5103cd81ac6U, 0xbe55eeaa3dd8035cU,
  0xbea3c2243d80cd7bU, 0x3c8d3fabbeb7668fU, 0xbcdb6afcbe0e080bU, 0xbea267c53ee318dfU,
  0xbecbdd3a3df1b0cbU, 0xbea926bbbbc85489U, 0x3e33f5d23dff039aU, 0xbe53a3cbbe31aed2U,
  0x3e21d18bbedf934eU, 0xbcdef4523eed8accU, 0xbdcd8d503ee8939dU, 0x3e3239d0bdb82b8aU,
  0x3c7a922abd66bcefU, 0x3f04f1aabf069bf8U, 0x3e9d5ef83d4cc9e5U, 0xbee1eec63b907779U,
  0x3e3ac2773dce8fdfU, 0xbe22c1abbf734478U, 0x3f215d0abd402376U, 0x3d7c7fc7be5ed349U,
  0x3eaf8c7a3ca98cb3U, 0x3dace2f7bc6b03e9U, 0x3f14a2b4be5df0bdU, 0x3e1c0bbabe641159U,
  0x3de62f10bdb20657U, 0xbe3d6a803daa1f0eU, 0xbe5fb852be8030d8U, 0x3e9437913d2b01c1U,
  0xbd16a6a6be4babc6U, 0x3f06fbc53d746cf7U, 0x3e0ffc8abebd4120U, 0x3dcd4915befebfa6U,
  0xbd6340d13d2b3c79U, 0x3b0d34a03ecb146bU, 0x3e587cfb3d262e00U, 0x3e80a67f3e41d981U,
  0xbed4a9b03dc54d02U, 0xbf1f70793f63fb00U, 0x3d0c1fe83eaa70b7U, 0xbe00b9453e33287dU,
  0xbef9101fbca8863bU, 0xbda739b23d8902ffU, 0xbe4b7197bd8e3941U, 0xbee10456bc27d228U,
  0xbe6713f5bce140a9U, 0x3e3eaa00bda00fdcU, 0x3ea875713b71e566U, 0x3e1cee8ebe807079U,
  0xbed362df3d4cecc4U, 0x3e5c11fe3ea67621U, 0xbd932cbbbdc9a875U, 0x3ea561c5bdc0753bU,
  0xbf2cf1eb3ef8793bU, 0xbce49d553c8d5bafU, 0xbe0054babf328645U, 0xbe44c7853d8d2ec2U,
  0xbcdccf8a3f80da56U, 0x3c6a5a323e462c34U, 0xbe2eef0abc96508aU, 0x3f78ffaa3e0fc063U,
  0x3c95777a3ea2f165U, 0x3ef1ee0bbd44fe7eU, 0xbf5aff0cbe9bb023U, 0x3f7dda8d3e33edcaU,
  0xbf66ed63bd77b6c3U, 0xbda61193bf504c1bU, 0x3c795a19bdef8995U, 0x3e6d77aebec0b756U,
  0xbbbd736b3e7331f1U, 0xbec495613cd59319U, 0x3caeed053e23fecbU, 0xbdac46c0be25d3c5U,
  0x3ecf03e33e2238e9U, 0xbb07e5383dd3f672U, 0x3c411a9e3eab3452U, 0xbe5653873d969af9U,
  0x3e19e3fd3d448789U, 0xbcccae1dbeaa10fdU, 0x3ef53ca13d7db0eaU, 0xbefff88abef883e6U,
  0x3ea2bb813e7be3c4U, 0x3d4a4d1ebfad7895U, 0x3f8912af3d5005ddU, 0x3e56f0dc3de562c9U,
  0xbe1dbc0cbda38a49U, 0xbeca84573eeebf93U, 0x3e2f77993e5c8c14U, 0x3e55850e3ea829c0U,
  0xbd971c9c3e91adb2U, 0xbec217f1bbb6bb96U, 0xbdfc776abd3f02e7U, 0x3e6671ebbdc5ba01U,
  0xbd8d59debe0d71d6U, 0x3f1fd57c3d4387afU, 0x3d3278ffbdbb5535U, 0x3f1480eebe6c967cU,
  0x3d8454183dba024bU, 0xbe14dd393e5cbd39U, 0x3f3ea7abbc4cfbfdU, 0xbdd4306d3e3248d5U,
  0x3ece0d47be8af72eU, 0xbe2ccb6e3e9b0e14U, 0xbd917b8ebf462405U, 0xbe5dd01b3e0611acU,
  0xbe1b78b73d844591U, 0x3e9022b63e988e75U, 0x3e623250bbbe40f7U, 0x3e08da77be72309dU,
  0xbf0e96e23e0d3acaU, 0xbd8dc1ad3d4aae44U, 0x3e16f16ebe36d2e9U, 0x3d28b6b5be1120acU,
  0xbe765e3d3d27d095U, 0x3f6c5a023e8ae070U, 0xbe3bb11fbf4fbc7bU, 0x3d98a969bdc5cb0eU,
  0xbd05eeabbdd3f624U, 0xbc51a203be7aa94fU, 0x3e4bc7d53eec983eU, 0x3ef173c5be208f80U,
  0x3b9fdbb93e212ce6U, 0x3d561f5c3e8c62e6U, 0x3ec9a4e5bf9ba38fU, 0x3f91064c3d17925cU,
  0xbe4392143e08cebeU, 0xbe1a459dbd04c14aU, 0xbda33f4cbdbf696fU, 0x3f533c0d3f010482U,
  0xbe9895803e451311U, 0x3dde6ea6bf10708cU, 0x3cc91ba1bde87a42U, 0x3f20388abf141969U,
  0x3f0664eb3ea76728U, 0xbe714782bf378640U, 0xbf16f9a43ee64bd2U, 0xbe8dfdd93e16f9fbU,
  0x3f27fd073e93e01dU, 0xbdf65df9bd5a66afU, 0x3e9b3a0fbec40ab3U, 0xbf17a3cb3df8cbabU,
  0x3e20178c3e2a15eeU, 0xbea30c183e1adb7eU, 0x3ded26fe3e57773aU, 0x3eeea6a8bf1e91e3U,
  0x3f6e4559be24122aU, 0x3f1a844ebef575c3U, 0x3de75f20be95cf76U, 0x3e880aba3e18a8b8U,
  0xbf5aff78be062322U, 0xbf30ad28bf0f9051U, 0xbf0dda333e565c89U, 0x3d093615be4afb9aU,
  0xbec9d7d93f4f96b1U, 0xbfcadff53cb5a6fcU, 0x3de9d9dc3ed30c8eU, 0xbef35204be966bbcU,
  0x3e492281bec6a2c5U, 0x3ecc5ef93e1e53e5U, 0xbd7f34b0bd15ef5dU, 0x3ec298553ec0adbcU,
  0xbcbd7aab3e259757U, 0xbe41f5213f22fe58U, 0x3df36b8bbe4e7070U, 0xbf98a44abcb0a718U,
  0x3f76a85abef966b6U, 0xbe95b7d73e8000a8U, 0xbe9af1a5bf82ee03U, 0xbf09fe9f3f0e19c5U,
  0x3ef436e53e6066aeU, 0x3e381dc73ee60008U, 0x3f03aa84bd242bc3U, 0x3ea60e0ebcb488afU,
  0xbf363922beeceb5fU, 0x3eb69b39be1ebe01U, 0xbf7193bcbf32f1cbU, 0xbeb93d473e9a71cbU,
  0x3caf96873c460474U, 0xbdd1bb0fbd2ecc51U, 0x3d5dcb7a3e1abaeeU, 0xbe1aca2cbc92cd4dU,
  0x3e92e749be967c84U, 0xbe3a3eb0bcd0b427U, 0xbe0229723cc792d0U, 0xbce255073cc5a9a9U,
  0xbc193e0bbf2b8d20U, 0x3e7313113d929480U, 0xbe4887a23da6bbebU, 0x3d6a5de1bdaef324U,
  0xbc80c023be093bb1U, 0x3d23c0173cda9473U, 0x3f288ac9be4e74efU, 0xbc8ba6903e3ad00eU,
  0x3e0b41013d02505cU, 0x3d0dfb65bcb34001U, 0x3c0f57323dd4a0ecU, 0x3d12bf22bdc3d5fcU,
  0xbe5dbbfd3d9005bdU, 0xbdbc6f583c2f6ddfU, 0x3d648359bd0af240U, 0xbe09c01cbe5a07aeU,
  0x3e73575d3c05dbd2U, 0xbce6c8ca3d34349eU, 0x3cb0ca123e09abc3U, 0x3b9b45173d675370U,
  0xbd81b238bc431d5cU, 0x3d6c2a26bc63f8b5U, 0xbdc58eaa3d864bfdU, 0x3ce230f63c087e3aU,
  0xbe3d4c953c5a5ab7U, 0xbdf658c33d268d68U, 0x3d8240bbbd6f22fdU, 0x3cd32a48be785351U,
  0x3e1844c1bd9fa69aU, 0xbe4e8d4c3c0858d8U, 0x3e7b447bbd8819b7U, 0xbee332e1bf0f3ea3U,
  0x3dd5accebd91c03eU, 0xbd14fb4d3e0bb97cU, 0xbe94fb9dbd9b85baU, 0x3e232a463da63c62U,
  0xbdb3c24cbe3abecfU, 0x3cb6f558bd855e2cU, 0x3da5f2183d05ac52U, 0x3d2fde03bd01bb4cU,
  0xbd629dc5bd88bb1cU, 0x3dfb21c03c4d4500U, 0x3c0b6325bbf589d1U, 0x3d8bab58bcddffd5U,
  0xbd1aeb70bd8fd479U, 0xbb80e5c83c879ad8U, 0xbd26fe3d3db675e0U, 0xbd6aa448be15e892U,
  0xbbd747fcbd8defb9U, 0x3d959bcbbd1761d6U, 0xbc4d95d8bd797c54U, 0x3bd205783c65705fU,
  0x3ddb10943d46ed08U, 0x3d9144b2bcaf748eU, 0xbb0ecb703e0ca112U, 0xbdc40f65be4687fcU,
  0x3f9bfeb93cacda26U, 0xbe1f7be1be9d820bU, 0x3e3b9ab3be15dc20U, 0xbfb67f2fbf79428fU,
  0x3f3df09cbf3093deU, 0xbf5e19cbbd701cebU, 0x3f2163b33be98881U, 0x3f3e260b3f445d7cU,
  0x3c621b87bf2f4cffU, 0x3f3da6c0bf2ed61bU, 0xbe56a358bf5da843U, 0xbe1bff8bbef5baddU,
  0x3dc53065bf491159U, 0x3f7a0af03f3d3357U, 0x3f9159a2bee11100U, 0xbecdc8274033a3dfU,
  0x3ed398893eba599aU, 0xbd8751c6bedf45d3U, 0xbd8ee7563da50a6aU, 0xbefaecc3c007f8d1U,
  0x3e8f88f73fa0af3cU, 0xbf89ae14be5ea76dU, 0x3f10ca993f95d01bU, 0xbf19ee8abe3b3866U,
  0xbf36ac11befc73edU, 0xbe7b39ea3f11090fU, 0xbe213011bf2f04fbU, 0x3f14b3133ef4374eU,
  0xbd9e408c3cbdc6f4U, 0x3f5674673f073fa3U, 0xbd29cfeabc3849edU, 0x3ff29ddc3fec9cc8U,
  0xbf188a17bf2fe10dU, 0xbf0c8a933f6c096bU, 0xbf0a1cc83e1a7640U, 0xbe3c8cd0bf888285U,
  0x3ef796d6bd93967bU, 0xbe16e550bf3925beU, 0x3e8572acbf2856a7U, 0xbfa0245bbf99d3eeU,
  0x3f1536c8bf19c26aU, 0x3e70589b3e0fc02fU, 0xbed4175cbf0034f1U, 0x3f22a7f23d82f1a2U,
  0xbce7ef6e3f1ecb5bU, 0x3eea1e67bceaddafU, 0x3f273cc5bf824cdeU, 0x3f1d712abf0e604eU,
  0x3d74626d3dbd7fd8U, 0x3d93e9b7400709deU, 0xbf2e642fbf5ee3d8U, 0x3e645b4cbf4c7fbaU,
  0x3f43f5173dbff487U, 0xbf730c8bbe4d7ff8U, 0x3c3e6d1b3f41caccU, 0xc05cd2af3f03d822U,
  0xbf27decfbc0ea8a9U, 0xbe9eae0fbf107ff8U, 0xbec12f88bda06883U, 0xbdd4ae2b3f7d505eU,
  0xbef271443f2736acU, 0x3f84632bbb71898eU, 0x3baae88e3f036556U, 0xbf0fa7213df06214U,
  0x3f8b73773ccd4da2U, 0xbeb0007fbd92946aU, 0x3e712b883e777274U, 0xbe718e73be55c6fdU,
  0x3f05e1c6beb57306U, 0xbeaa83843dace349U, 0x3da9c9aabe6c87e5U, 0xbf0c72113eafd740U,
  0xbdd6c7d0bf2e6b69U, 0x3f0970c2be8a2587U, 0xbe74370f3f130771U, 0x3e970b2b3dea4523U,
  0xbd118d58beb0b595U, 0x3f5c13093e589298U, 0x3f0021f1bea67b88U, 0xbe3b877f3e244ebdU,
  0xbe3c432a3e1021cdU, 0xbd3f99de3ee4c7dfU, 0x3d38004d3a8cbcbdU, 0xbea448babe4fe555U,
  0xbeb3b4033dd8b01eU, 0xbef72c593e80c1dbU, 0x3ea776263e275936U, 0xbe69b4cb3e0743d8U,
  0xbb9fe4c0bea9f50aU, 0x3ca997703f0a7b43U, 0xbdf294743f333e9fU, 0xbe3c1fcfbc2bc2b3U,
  0x3c2996eb3dae5216U, 0x3e1f7533be2bb7f4U, 0x3c3e6169bc7ffd8aU, 0x3eb22cb03f4d3e7aU,
  0x3e2943d1bdfe44e5U, 0xbe1f399dbdd62ba3U, 0xbea2573a3cfd52f0U, 0xbccc79d5beea8f4eU,
  0x3f06c78cbc29e223U, 0x3e2117643ee87292U, 0x3eea1c5cbea68764U, 0x3c240cfabf4c0c70U,
  0x3e929f6dbd7481b3U, 0x3e29919e3c9d0b71U, 0x3e0f0b9dbee56139U, 0x3f03e9e2bedcdab9U,
  0xbd42b8eebee8dadbU, 0x3f3f1318bda40d8fU, 0x3e0733f5be62b7bfU, 0x3db66c2fbef75064U,
  0xbd66e33c3c9381e8U, 0xbd11ccc33e339355U, 0xbf1b39babf024a26U, 0x3ec11401bd963d48U,
  0x3d55e9333e461850U, 0xbee2e710bde84adbU, 0xbde13981be3ea5c5U, 0xbeb10bcc3e0a3eb3U,
  0xbe5bb49dbe01a941U, 0xbddd8d0bbe28adfaU, 0xbdfef41ebd0fb50fU, 0x3c970f383df57138U,
  0xbe84b8973f8092b5U, 0x3ecc7ec23d572d3fU, 0x3f80e3913e7c6723U, 0x3d382da2bea26c31U,
  0x3f5a147fbcb0c13fU, 0x3cd79d59bd096019U, 0x3d09923b3e8ea0cdU, 0xbda0e28a3edf036eU,
  0x3f259430bf0a6350U, 0x3ecb40593c73c26cU, 0xbf1a910fbf034c85U, 0x3eec6912bc5555d7U,
  0x3d24d5c5bf242030U, 0x3e81756c3f0dc195U, 0x3e8a925a3d87dae7U, 0xbe0d54cabd30e771U,
  0x3e0586443cca88b4U, 0x3ea761a0be8c2312U, 0x3f39f386be8f404bU, 0xbf8a3cdc3d834b44U,
  0x3eeb3bdc3dd1250dU, 0xbd78ba22be85e9caU, 0xbbbd5b763cf47fe9U, 0xbee726f03eee3947U,
  0x3e9c6db63c8d7122U, 0xbea46b0e3e6844b4U, 0x3e0a98dcbe944762U, 0xbef667fe3cdf33e4U,
  0xbf122b623d8d15d0U, 0xbd6c88873cbea60eU, 0xbddfe9bbbeb1de01U, 0x3ef9ae253d842894U,
  0xbd2c0eba3b3a43bbU, 0x3d31fed33eba8e4dU, 0xbe8a70d8bdbbcb2fU, 0x3d7b56383edee456U,
  0x3cbb35993dcce0ccU, 0x3e78eb95be0f648fU, 0x3dea39f73e2cc4aeU, 0xbccc59bcbe05b832U,
  0x3e4891f63db738b4U, 0x3ef54145bf1b287eU, 0xbd3655f7bf09fba4U, 0xbec3c4c1bf0fe7cdU,
  0xbf0997ea3d98dc41U, 0x3eda58743c44522fU, 0x3bc73e11bdfda04eU, 0xbd88d5133e0d9573U,
  0x3ceff4013f06fbf2U, 0x3ced4efcbdf1d571U, 0xbe220894bd972780U, 0xbf334d83bf4e85c7U,
  0x3d62aee0bcf366e8U, 0x3e0484da3dfc1afcU, 0x3e3d008cbec20bdeU, 0x3e93b3bd3de41e03U,
  0xbd91620e3e4458bdU, 0xbf3be63b3c8deab8U, 0x3e3f690c3f0fb882U, 0xbe23d0393eda0c58U,
  0x3e4f4762bca80c95U, 0xbe147205bda43bb0U, 0xbe2b4de9bc8a3d50U, 0xbe409f743dd77666U,
  0x3f7ea4543e4c20e5U, 0xbd4febd23ccccef9U, 0x3ca5920abf1b7f6aU, 0xbd3b1a103e8909acU,
  0x3ece9dc63dae7ce0U, 0xbe751498bed274bbU, 0x3d6f1659bc405a0aU, 0xbf42461bbed4c7e9U,
  0x3f17d407bf1bcf3cU, 0xbf5f043b3c4b67b0U, 0x3e8cfbb93ed5d988U, 0x3da452123ec1b8f4U,
  0x3cf3a3b1bed58f53U, 0x3dd579a8befbc2cdU, 0xbe59e2053e7324f1U, 0xbe9ab15bbe605413U,
  0x3ce58b9ebef7104bU, 0x3ea43ece3f11118aU, 0x3e8eaf883f336c61U, 0xbf1f8b373f42d6f6U,
  0x3f10abbd3e0383e9U, 0xbce43aed3f66980cU, 0xba963ee7bd98ebb2U, 0xbe016029bed9a1bdU,
  0xbcd784393e1b53ddU, 0xbe900a97bcd11c43U, 0x3e89e8a83ed635a3U, 0x3b9ad0a3bdf5451aU,
  0x3c737163bed1d522U, 0xbdb03d473f0094dbU, 0xbe012fa3be38eb9dU, 0x3efacbc6bc28b138U,
  0x3d8b782a3da5c82dU, 0x3ef729963ec4edb8U, 0xbdb34c7d3cb4db9fU, 0x3f3754063f05fd51U,
  0xbf24b881beb9a63fU, 0xbf2e57243ef8f440U, 0xbf41445abd92d117U, 0xbdd95fd1bf1a95b4U,
  0x3ef14bdabde11615U, 0xbe6c57f5be2a7017U, 0xbc4a7b0cbe497681U, 0xbf8c88f4be6550bfU,
  0x3f31c359bed9b911U, 0x3ef640ec3defb6caU, 0xbdbf000bbefd3f4eU, 0x3f5328303e9f64cfU,
  0xbd47585e3d384afbU, 0xbe3b784dbd9bebd0U, 0x3f0698b9be660ba4U, 0x3edf4667bec6fe69U,
  0xbd4a96c73d0338e0U, 0x3ceea4363ec2b733U, 0xbeb5db3fbe9401ebU, 0x3f28e411bf0fd36bU,
  0x3e400e3f3d054e65U, 0xbddad5afbf871727U, 0xbde1124d3f067132U, 0xbecc90f23f441d6dU,
  0xbf1988d23d53f055U, 0xbe0da78ebe5f5de8U, 0xbea60bc5bda259ebU, 0xbeb6d0ce3e91ab46U,
  0xbf17eb2e3e1eec2bU, 0x3ee746653ca852c4U, 0x3f2b58563edd7768U, 0xbda453f53c9b3d4bU,
  0x3cbd66363d3c41b7U, 0x3f0375f93ebdc70eU, 0x3d7b6d42be9d0b22U, 0x3f0cc2df3d460294U,
  0xbf01f2b13ea18c3bU, 0x3ea6716bbd56fa38U, 0xbe59a4693a702dc9U, 0xbe5c55d2bb5815a5U,
  0xbd8f9b123e7ba002U, 0x3deee4c63d85edeeU, 0xbd793cb4bcc29267U, 0xbe38c6c03e976b06U,
  0xbe2081753e1ddee4U, 0xbd415271bcc4be81U, 0xbeb8abe33ca5a6ebU, 0x3eb6e0d3bd6f1a08U,
  0xbeeca740bdac3c02U, 0x3d80db13be2f2910U, 0x3c522e15bd967289U, 0x3f0810a7be13a155U,
  0x3e4c1f66bd28ccadU, 0xbdd3dfb73d3212a9U, 0xbda8176d3c88bb5eU, 0xbd8fdf8a3d854c57U,
  0xbd52f3713dbecb41U, 0x3da3e90f3dde5c26U, 0x3e07c0733d7b47a3U, 0xbea1e14f3c6c3bedU,
  0x3dedb94c3e112323U, 0xbe990cb8be69e74dU, 0x3e049c653d390411U, 0xbe157c77be3c28e4U,
  0x3e7c4c413e879205U, 0x3e8d3c6bbf162969U, 0x3ef3c8733daffac1U, 0x3e2338d93e4b632aU,
  0xbe877f5fbd9e7634U, 0x3cf4157a3f61beeaU, 0xbdd4f14b3dd4dd8cU, 0x3ea728f33ebf6ddfU,
  0xbe8b93873e80e822U, 0xbe1c3363be5a4d59U, 0xbcca85ab3e4f6eb3U, 0xbeb4ed00be119f6eU,
  0xbd2f0c893e6e5643U, 0x3da260383db8a0ccU, 0xbdff4f96bd111bf8U, 0xbd0afcf93e88fe07U,
  0xbd7ee6553d1b6769U, 0x3c0d1aa2bc294950U, 0x3ecaf09cbe19d597U, 0xbe5d04203ed95132U,
  0x3eb5a9c1be18a34bU, 0xbd92081f3e31a599U, 0xbe23321cbf1d35aaU, 0xbe16f875be87b996U,
  0xbe7be0e33e3d209cU, 0x3e9c3cd93e8b7fc3U, 0x3e5a4a3dbd30ee49U, 0x3caaf4b2bedc7b9cU,
  0xbeca108ebe2be1c0U, 0x3decb0f73d779588U, 0xbe2cd950be53821aU, 0x3e918a40bd3155c0U,
  0xbe30e702be44f130U, 0x3d355d333e19a039U, 0xbe9c5b5abec860c7U, 0xbd80b1d13d5131ccU,
  0xbd0b0cdd3da8f6b5U, 0x3e29fcf53d9a8047U, 0xbe632e05be36b578U, 0x3e80368d3e8afe8fU,
  0x3d95f61d3cc89e49U, 0xbdc416a33f05157cU, 0x3e9d2d61beda155fU, 0x3eecfc5b3e022242U,
  0xbd531c2f3e15afbeU, 0x3e86b3b4bef2a0dbU, 0x3ce24458be4fd946U, 0x3e1df0e43eb15eccU,
  0xbc0a4c82be11eb79U, 0x3e3121ee3ef9fe28U, 0xbdf03b183d1b9c41U, 0x3ecc1e53befcbe16U,
  0x3e97362c3e3f0e96U, 0xbe6de5c13d96ccd0U, 0xbebc074c3ccdef89U, 0x3c09823a3e0f5f88U,
  0x3b9254063db1784cU, 0xbcc2ec7bbedf75b6U, 0x3e6d673fbd6c8341U, 0xbd466d91bcef703cU,
  0x3e069da2bd5a514eU, 0xbda922403d91e0b3U, 0x3cfc832b3e418c98U, 0xbd889e0b3d87e997U,
  0x3ea4c1eb3e0e9fcfU, 0xbd2a43d2be81bf8eU, 0x3e8faf51bcca47cdU, 0xbde8d9ad3d61441dU,
  0xbd43998a3d9f468bU, 0xbc4cc731bdc80af8U, 0xbeaa9f0c3ee85eb2U, 0x3e0e0111bd11742eU,
  0x3d005fc53e1063e1U, 0xbecd935c3d803469U, 0x3e75d6d3bd02507bU, 0x3ea4e748be327142U,
  0x3d86a3dabcec4b45U, 0x3ebf23b4bd98f306U, 0x3dde7aa2be5bef21U, 0xbca3a3353ea4facbU,
  0xbd89f50cbc6d30acU, 0xbd491b893dbb0750U, 0x3cfbec03bed138b6U, 0xbd3073a83e83e2afU,
  0x3eb70037bdce80c2U, 0xbeb41a3dbe3a9797U, 0x3bd4398ebecd4d17U, 0xbf05f831be4246a1U,
  0x3eebdbc23daedc45U, 0x3ddbcdd43eaa7df4U, 0x3eab213ebd180aa8U, 0x3ef2daa1be31f0aaU,
  0x3e516cee3e67e356U, 0xbe630e3dbe0d1e99U, 0x3d5c5fafbd1d63e4U, 0x3d17f1123e49b453U,
  0xbc032f14bd2a9234U, 0x3dfbdf1b3e3f0813U, 0x3da914613e9e51b6U, 0xbd65f1ad3d99abbdU,
  0x3d59bd21be53db36U, 0x3d80c336be2cc40bU, 0xbcc553623d1ee846U, 0x3e27bb54bc6c7f92U,
  0x3db82335be9a1690U, 0x3e8d18a6bd2bb69dU, 0xbee1a3cabd3d388cU, 0xbc9a62d1bc1c6af3U,
  0xbd4f727ebc540adfU, 0x3cd824c8bdf3e728U, 0x3ee8e217be8c96baU, 0x3d3274a13d58199fU,
  0x3e136b52bcaddc23U, 0x3d9605b63b4cb6edU, 0x3d48abc03dc5ba89U, 0x3e201d07bdeea82dU,
  0xbee69891bde74c2eU, 0x3cd2b4c0bd93d695U, 0xbb90259d3debd71fU, 0xbe34c324bee236f0U,
  0x3e96b9fe3e040768U, 0xbdb870343d414fe2U, 0x3d7b9a723ba4e0a8U, 0x3d6d3a3abcd9c96fU,
  0x3cb564f43d24588eU, 0xbd6efde7bc085843U, 0x3d39baab3d183c04U, 0xbe1b4e833d91ca89U,
  0xbd8118f1bd78cc97U, 0xbd03b578bc734ef3U, 0x3ec7dbf9bd8b7e7bU, 0x3e207e5fbdc3578cU,
  0x3cf03faabd6fab05U, 0xbe9bb3e7be7acdd5U, 0x3f1bc55dbd803092U, 0xbe7a397abef11d8fU,
  0xbd3935f1bc90e78eU, 0xbac443513d96eec3U, 0xbebaa4d7bd7a67a6U, 0x3da248963ed4df1cU,
  0x3d43b563be60f86eU, 0x3af41b2dbcb5d3aaU, 0xb8eaaf2ebd51f7e2U, 0x3dddbbb1bcac7f02U,
  0x3ce2b186bc949650U, 0xbd28fb11b8920982U, 0x3d2c1357bceae68aU, 0xbda02403be17b366U,
  0xbe949682bda79429U, 0xbd8210e4bd3bc87dU, 0x3cbb0276bd1f5454U, 0x3c918b4ebc561fa1U,
  0x3c2db5a23b2e0cfdU, 0xbbe3e6b3bd5ea51aU, 0x3dcbd0bd3d19a987U, 0xbcb633583bb0468aU,
  0xbccff9cfbc9f0ad4U, 0xbb9e8e24bdf16a8cU, 0xbd8ac93a3be76f88U, 0xbe64cf1fbed9182fU,
  0x3e9a9fdd3dcc73a0U, 0xbec3ce103d1d65f3U, 0xbd180deb3f20971cU, 0xbed8fd32bec6f10bU,
  0xbcedca63bf1668c2U, 0xbf4e3a30bdb95732U, 0x3e5e33ea3eae2df9U, 0x3f4e024e3f10f06cU,
  0x3d4d028fbf6c2789U, 0x3d0ef39a3cb9ec31U, 0x3e928628bec40982U, 0xbed0cdee3cc86575U,
  0x3cc96992bed4bbd8U, 0x3ecf5faa3e40cadaU, 0x3f8bc15d3e9eac1bU, 0x3dd8c3313ed1b567U,
  0x3df047023db0cbf5U, 0x3cdeb9b63edbf121U, 0x3d253d80bd89498eU, 0x3d163bbebe01fb9cU,
  0xbedb91663e51da19U, 0xbe76b0b03d88e46aU, 0xbe425c683e318298U, 0xbe3e94093e4008cfU,
  0x3d03b9bebe42c755U, 0xbdf7b0d3bea3e60aU, 0xbd59849abe3f1819U, 0x3ea2e4d93d2ef450U,
  0xbdf98f8ebddeab6dU, 0x3edadf213e94ab40U, 0xbcecb4b7bd9a51acU, 0x3eebe2ba3e8cfc88U,
  0xbe662725bd5905d6U, 0xbe8295f63ed6e6e6U, 0x3ca52e393c555120U, 0x3dd37faabee8abfeU,
  0x3e06a9683d344d59U, 0x3e37c891bf891731U, 0x3f239e413d36799aU, 0xbf6156cbbfa8e26dU,
  0x3e785843be10e7e3U, 0x3e9719c5bd544c9dU, 0xbe106276bec940e0U, 0x3e4d3201be39d5b9U,
  0xbcc5e2943e7b0238U, 0xbd86fa40ba602711U, 0x3ecec876be906820U, 0x3ec4fadebe17a490U,
  0xbdb3b5cd3cfdab9dU, 0x3bc2b24a3f134d5fU, 0xbf1ee724be784a64U, 0x3e377f61be4f463eU,
  0xbeffc8ce3e098f5cU, 0xbeb61a95bf6c04b6U, 0xbe3fe2203eca1208U, 0xbe0806a43e1b7bf8U,
  0x3d9476debd1da838U, 0xbdb1c666bd71909cU, 0x3e90eb513c0d6a2dU, 0x3e00d75d3e356c97U,
  0x3ece40473e125f6fU, 0x3e37486b3d456527U, 0xbf427a043e84d9afU, 0xbe24ca253c44c85cU,
  0xbee0a7af3d95008bU, 0xbe696993beba1644U, 0x3c8678af3f45e5c4U, 0xbe4c732abf6544a3U,
  0x3dcbcb613e3a3b57U, 0xbd42e20d3d840917U, 0x3f2b267c3f08c196U, 0xbe75079c3f474a79U,
  0x3d076be3bf445220U, 0xbf7f8b2abe4163a3U, 0xbedd7db53e99a0b3U, 0x3fa37e73bea7cb3aU,
  0x3c589240bc9ea16fU, 0x3e98182f3d4bb551U, 0x3f08d90f3f7ee839U, 0xbe2295733eae03e8U,
  0x3e7144313de55b5fU, 0xbcea7b613e9dbfeaU, 0x3b2d2ba63e9804f8U, 0xbe91936abf02a709U,
  0xbf14befd3ec96603U, 0x3a9a03cbbe7cffc5U, 0x3de8b9d73f08f0beU, 0xbf052e55be3d9f42U,
  0x3eff3db3be8dff99U, 0xbe80c13e3ee2e55cU, 0x3d9729fb3eb9198bU, 0xbde393883ddfc8dbU,
  0xbd7386ddbdba0a87U, 0x3da76f0bbe9d9ec3U, 0xbea15268bdc5d2cdU, 0xbd887608be77c451U,
  0xbe86d50bbe8bff00U, 0xbf8cc64d3e2db094U, 0xbe1f0a6d3d4e3198U, 0xbdf08c5bbe9ab050U,
  0x3edd5ddf3de4b162U, 0xbd882072be854dd0U, 0x3f3ac60bbcf3d200U, 0xbf13f1bdbed6f096U,
  0x3f64223fbd38dcb5U, 0x3e30b01d3ea60caeU, 0xbf0e1aebbf35dee8U, 0x3ef707be3ec43b9aU,
  0x3c110511bf22d865U, 0x3f144ecd3ba368f1U, 0x3ed7ff68bf0a0a42U, 0x3f9d14033eeb1071U,
  0xbe481a61bde63d90U, 0x3e09688a3f25e9c3U, 0xbed0a5fbbe4056caU, 0x3e85dc59bf3f46a2U,
  0xbf1ac2f03e850830U, 0xbde86faf3f8e2ddeU, 0x3d70b1783f01bb55U, 0xbdbf2d5c3cb570b9U,
  0xbdbc88693d2c917fU, 0xbe963be0bebfaf63U, 0xbe8b27213e20c105U, 0x3eebd0f63e2feb43U,
  0xbf1f3a6bbe77d12eU, 0xbd3f559fbc6dac29U, 0x3e9e92cd3f08c434U, 0xbe206d80bf07ef96U,
  0x3eaef61c3d1d2a51U, 0xbdd1fdd8bf05d232U, 0x3e7f8cbfbe3ba0c4U, 0xbf1090a33f0ca337U,
  0x4003794dbf88ff44U, 0x3d10b829be3042dfU, 0x3f0ca32f3ee1e9daU, 0x3e46f52bbea512e9U,
  0xbe00560dbf66d2f8U, 0xbe2d35bfbdfd2afdU, 0x3e92b4fcbdec0e22U, 0xbd0e07f3be03489eU,
  0x3e345966bd6e7a92U, 0xbf43d04e3dc1188aU, 0x3f87dbb03e45be71U, 0xbe95b031bd9c354cU,
  0x3fb3ecabbdd79e82U, 0xbd4e031c3d2a360fU, 0xbb78ca5e3d9b587dU, 0xbeb458c3bdef73faU,
  0x3e3739213f0fc48cU, 0x3efc4bbdbef782c3U, 0xbebc80aa3e01b232U, 0xbf0988333f37cfc1U,
  0x3d5951bcbd185039U, 0xbe81aa963dea4ad1U, 0x3cffcd38bd82e7adU, 0x3da0e9d13e15fdf8U,
  0x3b7c14583dcf741aU, 0xbe858b8f3da029feU, 0x3ec324513da0d902U, 0x3eea3cc03f2ea9f9U,
  0x3c87b6aebea5daf5U, 0x3e9de0933f5fd344U, 0xbeea38efbd633bedU, 0xbea767273ea49137U,
  0x3d786b5bbd908b33U, 0xbe912cc43e5b7c75U, 0x3d9e23ddbe67175bU, 0xbf49836bbf242c0fU,
  0x3ed4ae963df6b92aU, 0x3e9cdd7a3e2fffb6U, 0x3eb35083bbc752c3U, 0xbed6d22cbf610a2cU,
  0x3b90be373d3e0a82U, 0xbe391d21bd0bcdafU, 0xbe85317c3de4be4cU, 0xbe9f5efabcadc00cU,
  0x3d2f85053d92decdU, 0xbd457c2ebe5861f8U, 0xbd46499cbdb68c07U, 0xbecec70ebde251c3U,
  0x3e7f60a5be1a7da8U, 0xbeed6451bfb6f231U, 0x3da2e680bedcac75U, 0x3cc907aa3e1c20a2U,
  0x3e76df70be8cac91U, 0xbf1f5d8ebe9c8d8aU, 0xbe209dfebe16b31dU, 0x3e26703a3e96cabbU,
  0xbebcfe5e3d5fc89dU, 0x3ee08d0ebd9ed6d6U, 0xbe91e3073dba1268U, 0xbd97a2de3ecd41c4U,
  0xbd73095abdc1b049U, 0x3deeed1ebbcb6a53U, 0xbe5ba860bce207e9U, 0xbed3d5b5bec3d2c7U,
  0x3d33aec8be52c46fU, 0xbe33fc0f3e1c73fcU, 0x3e7f55213e3ee496U, 0x3ddc06bbbd60e0d1U,
  0x3e05c809bee0474aU, 0xbea278cbbe8cb1e0U, 0xbdd34d7cbe05d877U, 0x3df1c82ebe6cb5ffU,
  0xbc8f052dbe1f2ac3U, 0x3da5b1d93ddbc410U, 0x3ec931b63d5d1330U, 0xbea390b53f0b3c82U,
  0x3def137cbcf527feU, 0x3e2b5321bd55b4e2U, 0x3db7abb53e3251bfU, 0xbd8f004ebea43669U,
  0xbd8bdad43e06b6d2U, 0x3dee550bbe64a521U, 0xbea9c5933e8277cbU, 0x3c03e9803f19ce36U,
  0xbecda4c23cfc438fU, 0xbe74d3d0beaddb7cU, 0x3e01c1173d0e63ddU, 0xbe70d2733dd8694dU,
  0xbd782d13bd9af46dU, 0xbd1fa6073c840876U, 0x3e7bb5013c2851c7U, 0x3eaaf8c5be5936d5U,
  0xbdedf232be38fe69U, 0xbe170e723ec957e1U, 0x3c080c1f3d2d7c9aU, 0xbe2b692dbe0bcef8U,
  0x3ce69b9b3e4e1621U, 0x3e8713913e9ba5efU, 0x3d36f8d23ed394c2U, 0xbe8b448ebeee1cdfU,
  0x3e7cee1d3e4a3222U, 0x3e37940d3e3bf97aU, 0xbe78093ebd91c1e2U, 0x3e085061beff9956U,
  0x3d869ea13ef5cb5dU, 0x3e66ed5f3d4d31b4U, 0xbdf38e773d72d7aaU, 0x3e41ac5c3d089fe7U,
  0xbc7f1adebcd31197U, 0x3c8c54623e5ee3eaU, 0xbe92c2023dd422abU, 0xbd040b36bf0463cdU,
  0x3e934970be2ab8aeU, 0x3e141fb0bd9fabd9U, 0x3d959a7bbe3a611dU, 0xbe09cd7e3ef8eaa4U,
  0x3e769b673cab181dU, 0xbe7fd429be229183U, 0x3e6d03113e22c925U, 0x3e19e3e53e903b31U,
  0x3bbd29643e9f0582U, 0x3e7c145bbe019a59U, 0xbecfa2e23e083490U, 0xbec9d1c53e0816e2U,
  0x3dacab8dbd8d1bb1U, 0x3b31afbd3deccfdaU, 0x3c9853be3d9eac66U, 0xbdc0ae17bd26114dU,
  0x3e518132beaeb91dU, 0x3d8e735b3d2d3e1bU, 0xbd0e846d3b514825U, 0x3e960062bdaed6edU,
  0xbd650c9abf0fad38U, 0x3e4f8edf3d296b50U, 0xbda013bcbc39039fU, 0x3ea756693cf12268U,
  0xbc1ebe5fbcd85684U, 0x3cfc80ad3d182ab6U, 0x3f10ff9bbe5e24b0U, 0xbe000b35bcc883fdU,
  0x3e2797d2bd593265U, 0x3c6347e6bda68783U, 0x3da0d4dbbcaa1c6aU, 0xbb8ae1763d22d3c5U,
  0xbdd028e93d8f3d2bU, 0x3d253a34bc6aebd4U, 0xbd414c0f3d801a8cU, 0xbd91598bbe53baa8U,
  0x3e485f4e3d6cb73fU, 0xbd833a3abd2ee408U, 0x3cdc997b3c5c4f48U, 0xbd8eef6f3d1192d1U,
  0xbd34497ebd9a89b2U, 0x3d5a5f17bdc29a55U, 0x3daa113f3ca7b23eU, 0xbe00110d3cffd58aU,
  0xbdc525b8bca2ba72U, 0xbd9317d4be0b2bf5U, 0x3e60e8133b353789U, 0x3d508bf73c1fffc6U,
  0x3d0612d3bbfe9906U, 0xbe987351bcc4f793U, 0x3e30366c3de3c1d0U, 0xbe976fc8bf216fe9U,
  0x3c8f8d6ebc6ab3ddU, 0xbdd7e9f53df14948U, 0xbe82555c3d7cfc71U, 0x3c1db4aebd25427eU,
  0xbcb6e8aebe0d07bcU, 0x3e38281fbcf22a1bU, 0x3d8824a0bd3204b1U, 0x3d62523f3db5bc8dU,
  0xbd27e2263cec9585U, 0xbd3ffb7e3e29876cU, 0x3e2e99d2bdaa7de4U, 0xbbb897213d5e7afbU,
  0x3de08d3c3dcec5b6U, 0x3d5507063d982fa7U, 0xbcf7866f3db1291cU, 0xbdb123febd2a6927U,
  0xbd5e2f7fbbf41bc4U, 0x3d506c163d821295U, 0x3d4dd43dbcedf7f3U, 0xbcab98ae3a8b3097U,
  0xbe39f4383c7e0be5U, 0xbc20a7fbb9da9afaU, 0xbdd3cce9bc910962U, 0x3d9553eabdf2a595U,
  0x3c481c7e3ce822e8U, 0xbee6fb0dbe794855U, 0x3e0e95c03e2484c5U, 0x3ecfa7db3de1be98U,
  0x3e99f3fd3ebeecd3U, 0xbe59d1afbe253a01U, 0xbda0553c3d39e455U, 0xbf389281be8ac7eaU,
  0x3d01113a3ee9474bU, 0x3e194c34bf3b90cfU, 0xbf56eea9be88475fU, 0xbe918d2bbe8dd3e8U,
  0x3d1ba351be95585eU, 0xbf3073993edf5eabU, 0xbef44e71bf465fc5U, 0x3f6a95c23d91628cU,
  0xbf923be03c686a46U, 0xbc691b903e318e71U, 0x3c2f073fbcb01248U, 0xbd361ae23e5f154dU,
  0xbf85581c3ec7bd58U, 0xbd236361be8564e6U, 0x3db3648bbe6dcff7U, 0x3e8e82a7bf1e4566U,
  0x3f32ba85bddfa7a3U, 0xbea1fb223ec08873U, 0x3d9a94d43f23b9d3U, 0x3efe5395be770f97U,
  0x3e1ed424bd945fb9U, 0x3e3c254dbf2973a2U, 0x3ea2a14abcc91b72U, 0xbf9503f9becaea27U,
  0xbe1a31433d27b90dU, 0xbf03ba8abf882243U, 0x3f064d65be0242e0U, 0xbd793312be92fd69U,
  0x3f2f5c653d3be48dU, 0xbf75dcde3e3dea77U, 0x3f0e20303d63eb35U, 0x3f2b00b23d5eb5faU,
  0x3f00e812be7631e3U, 0x3d2632e23e085fb2U, 0xbf2d470ebf29a997U, 0x3f8cd5643e833300U,
  0xbd278b45bf7cbe4fU, 0xbe80b623bb8f5753U, 0x3eaf77863d0d5be1U, 0x3ee0c587bd72984fU,
  0xbd9de4d13cb6bfa4U, 0x3b7c58573ea82676U, 0x3f1edf7e3ec78b8cU, 0x3eab50083d968261U,
  0x3f03a8afbe52bc78U, 0xbecc8a4b3f2c2d7cU, 0xbec85c743f43ce21U, 0xbe27a0c7be90090fU,
  0xbf2fa3a9bc9b17dbU, 0x3df1c3433e0f174cU, 0xbd2ab1a83de91640U, 0xbe6a013b3c14564eU,
  0xbf84d864be6ab69cU, 0x3d08f190bdbf6d72U, 0x3cbc0b5c3ebfca86U, 0xbdb9a8ffbf24e7acU,
  0x3f317723bca306b1U, 0xbe8d893dbebce87eU, 0x3e04c495bedc4331U, 0xbf657037bf3312ddU,
  0x3f0795b8bf41d5faU, 0xbf19c98ebd88d87fU, 0x3e475eed3f589d8fU, 0x3f6ea2cc3f260c7bU,
  0x3c70f46bbf893f64U, 0x3e5aa6a1bec1aaa9U, 0x3cd52b5abf71a5dcU, 0x3e6e65d1be54861dU,
  0x3d148bbcbf222295U, 0x3f4ec85e3f233a21U, 0x3f8d73b23eb4a0f0U, 0xbf02a31c3f9648edU,
  0x3ecf10d93e0df35fU, 0xbd8d8649bf3f0697U, 0x3d9726513c13a405U, 0xbe2d501fbfbcd90eU,
  0x3ee70da13f5c1541U, 0xbf389c3a3ccea3f7U, 0x3ee72a013f104533U, 0xbe07d0b53d3fb32aU,
  0xbe9dc01bbed54bbdU, 0xbd8468263f05adb0U, 0xbd77308ebf2df91aU, 0x3eef72703e90a04eU,
  0xbda8fe01bd86a43cU, 0x3f3905193f0e3f4fU, 0xbdb2cc13bda0aa05U, 0x3f60f4d43f354df4U,
  0xbf3827d2beda04faU, 0xbf1f16463ec0410fU, 0xbed9acad3da85ec6U, 0xbe0831dbbf5c7a65U,
  0x3f0499bc3d379c43U, 0x3d6c3b68bf1d0fffU, 0xbd6c8eb0beb55e4cU, 0xbf5e0de5bf9d29d5U,
  0x3f1833a7bf1fb67fU, 0x3f0980b13d061fbfU, 0xbe48a354bf148657U, 0x3f30ae62bde910c1U,
  0x3d6936d63e848573U, 0x3d7644e83d5371e8U, 0x3f06ccdfbf59942cU, 0x3f366605be694799U,
  0x3d32f86f3d6055c7U, 0x3df719c93f924d3dU, 0xbeecc163bf198b88U, 0x3eef8857bf324ea9U,
  0x3f4900a73ac8294dU, 0xbf6288dfbe848cddU, 0x3ceb378b3f17e9f8U, 0xbfcd4bd43ee8a6a7U,
  0xbf32c0cabdd1d992U, 0xbeb72f6cbeba0160U, 0xbeb02a7cbd108c39U, 0xbeab31eb3f03cf1dU,
  0xbfc2f3d23eb6e444U, 0x3f503efc3d90fb43U, 0xbeafeb7c3f0c1e06U, 0xbe79eb513e193148U,
  0xbdefe4d0bd0c6700U, 0x3d8f33203e4424a6U, 0xbd958f243e5b3f93U, 0xbe44a2023ddfe6daU,
  0x3de91dc4bea7d8f2U, 0x3caa1dccbdf0f62fU, 0xbd26e3683e121c25U, 0x3dc0660a3c72f92eU,
  0xbb2a5be4bed70506U, 0x3e725963bd3f0e15U, 0xbebef15b3cf9a2b2U, 0x3db440c93db34001U,
  0x3bc4b3603d79f7ccU, 0xbc8601533d62a9f4U, 0x3f01d647be2dc495U, 0x3e0e6dc73dca2a52U,
  0x3dd6a6193c731605U, 0x3da5e55c3c8b14daU, 0xbd40b8a93deac5a2U, 0x3e4a1ef2bdbe1966U,
  0xbe6e8b86bd6f85f2U, 0x3ca0aa83be002757U, 0xbd89d458bd41ef79U, 0xbe0abcc4be2f1f4aU,
  0x3d9d7e843d3dc76cU, 0xbd84992cbd2881b9U, 0xbcd70a3e3dbd17d0U, 0xbd8d4c143de80ad1U,
  0xbd09ccbd3d316cf8U, 0xbd4546a53d651e1fU, 0x3d23c5333db0961bU, 0x3c30c9efbda68841U,
  0x3d4cc4e73d02386dU, 0x3d764dbbbdceecddU, 0x3e25a54abc985c44U, 0x3d28ef11bd1c7b29U,
  0x3d324ba1bcbf368aU, 0xbe5ee744be3c384cU, 0x3ec3735e3d70525bU, 0xbec7e9f2bf008a0bU,
  0x3cb6add33e0026dfU, 0xbe466c1b3e3c0c4cU, 0xbec20f883d2169c2U, 0xbd51ed973e67ec7bU,
  0x3d3c11babe72450bU, 0x3c40b2f9bd7184caU, 0x3d029515bdbefb10U, 0x3d47f2643d2e63bdU,
  0xbd0f6d9b3d909873U, 0x3d77078e3de9fe0bU, 0x3e468065bcf223e5U, 0xbd28b797be67fb5bU,
  0xbd584154bc79c718U, 0xbe33c8913ca21a3eU, 0x3d27fa0dbe17eef9U, 0xbc96bff6bdc301a2U,
  0xbc4edbd4bddb1811U, 0x3da82fa7bcbe4ec3U, 0x3e406bf13d0da3d0U, 0x3cddbf3d3d50f9bcU,
  0x3d17c321bc247372U, 0x3dfae753bdbeb5e0U, 0x3d4fcefbbd921a07U, 0xbe3a5c8ebe9a66f2U,
  0x3f04be643c0d4eaaU, 0xbea23e86be5ff63cU, 0x3de0b22abec154c6U, 0xbf126b10bf10a1d6U,
  0x3ebea31bbf294d5aU, 0xbf3246b6bc823989U, 0xbce89bdf3f3b65a5U, 0x3f0cbbab3f0ca7c6U,
  0xbdaa5454bf435e99U, 0x3ed134d0bec73d58U, 0x3cce436fbf2a31f8U, 0x3eb7afdbbcbdbd0dU,
  0xbc613835bf1fd611U, 0x3ef8a3703f2c3480U, 0x3f5492fb3ef4daaaU, 0xbf027b283f633284U,
  0x3eb543723dc563ffU, 0xbdf54c4bbe46c192U, 0x3d4eac66bdb66317U, 0xbe2357f0bd868dd1U,
  0x3ed4d4af3f678828U, 0xbef3c61ebce281abU, 0x3f34ad9c3ef93d10U, 0xbebe1f10bde5dd85U,
  0xbea67419bf25a603U, 0x3dd4c7433f04505dU, 0xbc7e1287bf02e29aU, 0x3ece60103d922d8eU,
  0x3d9aa5f43cde11fcU, 0x3f44ede53e7d3697U, 0xbed502693cad2b20U, 0x3e35c36b3eaeb9e1U,
  0xbf1216eabeb72191U, 0xbee37bf33e042de1U, 0xbf311d93bde2127eU, 0x3da84969bf620843U,
  0x3eca855dbd1ac04cU, 0x3df3af3abe896241U, 0xbe43ac95bebc7061U, 0xbf4ec539bf544c37U,
  0x3f07a465bf13915fU, 0x3eb44ef2bdd97bc1U, 0xbd9fb782bf00645fU, 0x3f5153d0bdfff6efU,
  0x3c1b3b313e769feeU, 0xbdd759a8bd940c1cU, 0x3f105833bf4093aaU, 0x3f23cfd2be978f8cU,
  0xbd34edb3bcc3d4c8U, 0x3ccb58f93f534fcfU, 0xbed3ce18becaa5bbU, 0x3ec7bbb0be3ad775U,
  0x3f251254bdb9379dU, 0xbf681c3ebe627f08U, 0xbd31bfce3edaa7c1U, 0xbf73fa353eafdd5dU,
  0xbf19fbf2bd9086c1U, 0xbd5bd312be32464eU, 0xbecd821d3d129a76U, 0xbe79dbe23eaba583U,
  0xbf11ee7b3e15be6bU, 0x3f6bf5ac3d469ce8U, 0xbded43ac3f11aa0fU, 0xbcd0cc033e84fc32U,
  0x3e2cb45d3cbe9a41U, 0xbdd38acbbbc6b6e7U, 0x3e0ee0e4bdc2f3e8U, 0xbf1e0aae3e54950fU,
  0x3f523ee4bf1cda7aU, 0xbf1aa5b8bc020278U, 0xbe933a7a3d324f56U, 0x3bf5a08cbe471ee6U,
  0xbe1e784ebf1792fbU, 0x3e2502c8be9c2158U, 0xbdfe7d323e2f4b51U, 0x3d8721b63d7d5c52U,
  0xbc36c0c6be4a7035U, 0xbe7a1c2b3e791235U, 0x3ee1fe5d3d8bf2e6U, 0xbf2488673cad5a64U,
  0x3ec1be543c221eecU, 0xbe2bfb403f1cbe24U, 0xbdb2a8cbbdf049e1U, 0x3df8b0fd3c8efddfU,
  0xbd18c911beaf9e83U, 0x3e1c5d1ebdf5a2feU, 0x3e60b083be27cbf1U, 0xbe80e3ffbe1e5ee2U,
  0x3e831567be682795U, 0x3db490203ecdbfebU, 0x3cc36bee3d19b24cU, 0x3e9a16cebd2009c4U,
  0xbd448bda3d878158U, 0x3e7927543e01fdf4U, 0xbe4ea0b73d21029bU, 0x3d2c845a3e593445U,
  0xbecb6a70bd171247U, 0xbeda10993de7e9bfU, 0xbe1d8f2ebda19253U, 0xbd8f6843bde1506dU,
  0x3ebd7d4cbd9d12cdU, 0xbf0f3a143f03d842U, 0x3e081109be81e621U, 0xbf768d94be27adc0U,
  0x3ebb7c0ebef792c4U, 0x3eb24d33bb832fd4U, 0xbd8d6214be1311cdU, 0x3f1a95943eacf986U,
  0xbdcd1512be546352U, 0x3e1d11883b52c17dU, 0x3e83ea4c3c602444U, 0x3c49a608be048cdbU,
  0xbcd521b73b71f1adU, 0xbd92bb13be12ab55U, 0x3de41cf13e4d4f76U, 0x3ee34b30bdd652b6U,
  0x3de4a9793dc12e41U, 0x3cf64a6abe7c8abeU, 0x3d5649aa3d2a94f9U, 0x3e76c9eb3eafcbe2U,
  0xbf0f8413be0fa5dcU, 0xbdf8e0e7be0ba151U, 0xbdf8d796bd38bca1U, 0xbec5b9513e2fb6caU,
  0xbecb75cdbedaa286U, 0xbdc91b4d3d83ab43U, 0x3e2aac003e92aa28U, 0x3cabef1cbe2990abU,
  0xbff6b6d6bde5efc4U, 0xbeefd9bc3d2079a6U, 0xbddd8ce33e7a54eeU, 0x3f5b29d43ec92121U,
  0xbe2c59513f4aeb92U, 0x3fa7e9053c8f1e96U, 0xbf11a1a2bf3564bdU, 0xbe96566e3e430775U,
  0x3c252caf3e293cffU, 0xbe235c2b3f5c38ecU, 0xbed691bc3f55dcc6U, 0x3fafb1e03eb03b04U,
  0xbd8b60ee3f90fa6cU, 0x3df58703bfabff45U, 0xbee590b53f6c9a94U, 0xbd84d042bfdaa823U,
  0xbee638b4beba1334U, 0xbdca94663ef2bcc8U, 0x3cb37272bdabe0eeU, 0x3d1b4fea3d22b9eaU,
  0xbe493cb9bf08763eU, 0x3d4cdd803e399d9cU, 0x3d581ca9bfa260f6U, 0x3e5506ffbe45e659U,
  0x3f1d5e413ef2721bU, 0x3e693005be067361U, 0x3ca8cd3c3edd35d3U, 0x3d732ea2beb1fa20U,
  0x3d3b91a43a41c511U, 0xbf20f5b7be613455U, 0x3de5ec993d114781U, 0xbfd6681abfd0fa30U,
  0x3e9125923e8c3c87U, 0xbed1734ebf4aa458U, 0x3f14bd6a3d2a303cU, 0x3e0c34573ee64350U,
  0x3e44c3cfbd815f66U, 0x3eea62983ced2cbbU, 0x3e2e68283e3fbdbbU, 0x3df2bea53ebc5e6cU,
  0xbd465e9a3e0cb877U, 0x3e18750ebd163c46U, 0xbd41c056be929342U, 0x3f2799353e089fd5U,
  0xbd5b3dbabe94b9deU, 0x3ecbbf6bba61585aU, 0xbbcef2dd3ea3668bU, 0xbe4888d33e049d8cU,
  0xbd2c2370bb9f2b44U, 0xbd371872bf9c2de1U, 0x3f810dfc3d34c78dU, 0x3efd04253e9df411U,
  0xbe87cf01be11ed76U, 0x3f4629e23e24c3f8U, 0xbd370a613f357556U, 0x4015586abe199483U,
  0x3da686423debd8a1U, 0x3e0e77073e71f448U, 0x3ea53b98bdd536e5U, 0xbf20f6edbeb43f3aU,
  0x3ea3b0043e7d6538U, 0xc01ded9c3c765433U, 0x3fa7cc4a3c8ce875U, 0x3e2b5a62bedff16bU,
  0xbe84821f3b4bb176U, 0x3e3ee7e73ea8f8b7U, 0xbe291401bd6fa0f3U, 0x3ed314383e3a6f13U,
  0xbe485ad83d999fd0U, 0xbe60d78dbd8728e4U, 0xbeadef81bea091e3U, 0x3d536a87bdb41c77U,
  0xbc07b6353c66a444U, 0x3d0f58aa3ea66a29U, 0x3bed3d94bd789d29U, 0x3f976a683dba7bf0U,
  0xbd9913733db426d2U, 0x3d1e0e8fbe8c5d14U, 0xbe22a89ebefc6d55U, 0x3e6e53533e424487U,
  0xbf0aaa57bdcef51dU, 0xbdba76ecbe5a41a6U, 0x3c0f286dbdd5d58cU, 0x3eebdd883e2b4cddU,
  0x3d0766fa3e0db0c3U, 0x3dad3d12be483ac6U, 0xbc7786f6bdee296cU, 0xbcb42fc7bce74fc3U,
  0x3e9124003e8aae34U, 0x3c831940be03fc21U, 0xbac0bec83e571a34U, 0x3db964f5be1a7705U,
  0x3e500ec73d103928U, 0x3ce21806be554d96U, 0x3e6b8e013da93a12U, 0xbf358d23bf001ef8U,
  0x3df57d233ddd64d9U, 0xbe69e9cfbf890925U, 0x3f59f99d3bb7d29dU, 0x3dd804fe3e11387fU,
  0x3eebc066bd9887eaU, 0xbeb7671dbd15395eU, 0x3d16ced63ef94677U, 0x3dc31cf8bb4dc747U,
  0xbdcce52dbca9b383U, 0xbe624550bd651d8fU, 0xbe22d474be2c20f2U, 0x3f7b6ed33c6b6125U,
  0xbbf4363abe279f11U, 0x3f42bf42bd257978U, 0x3d754fb9be4bad20U, 0x3df4f6ce3e43cf9aU,
  0xbd0aaf8abd63549bU, 0xbdc7a44f3eb54e85U, 0x3f61231b3e450f35U, 0x3f0ee5ad3e7f5921U,
  0x3e607f4abe6660acU, 0xbe014aba3eb0d8a7U, 0x3cbb0ae5bf9146c2U, 0xbc831ec1be29f24eU,
  0x3decf8973c84add8U, 0x3e6062123e407398U, 0x3f078e13ba41ac76U, 0x3ebfe73cbe38534cU,
  0xbf185b5ebd53def3U, 0xbec0f6c5bcaac0b3U, 0x3e9c9b393e14c7f5U, 0x3d29bbc0bdc5c4e3U,
  0x3d8b3a963d9a2b43U, 0xbe264932be22bab7U, 0x3d9a2c36be732e09U, 0xbefccdf5be75c24fU,
  0x3f0267c1bf10498fU, 0xbf03891bbd7eefa0U, 0x3b9afa163d8f40f6U, 0x3ea580153e06ffcdU,
  0xbd2ded72be050fcdU, 0x3f16028ebda47c6dU, 0xbe87bd8ebc1e4369U, 0xbe1b92e2be08dd76U,
  0xbcd5361bbe98d105U, 0x3d8ed1c93e4bbc12U, 0x3e977e263e0ab454U, 0xbf46cce23f213a1bU,
  0x3ee420103e206a0dU, 0xbd10ab453ea670edU, 0xbd829405bd3c503bU, 0xbd7810c3be55a8c3U,
  0x3ec7412b3e61c6deU, 0xbdadb29dbe3468a5U, 0x3e0668993e2b12a2U, 0xbc746341bebf0b19U,
  0xbe8c48063bd687d3U, 0xbe28a39c3e605a14U, 0xbe010304bedfc9faU, 0x3e44ecd5bca96edeU,
  0xbda5fca7bd2e941aU, 0x3ec927273e1e9bb7U, 0xbe242a78bcae3923U, 0x3e5f91213d341fabU,
  0xbedb8030bd8c7fceU, 0xbe9a322a3e927aefU, 0xbe99f8f3bdad7cc3U, 0xbda7bca8bed935a8U,
  0x3ea4af963d67a934U, 0xbe770e63bee67d16U, 0x3aaf180dbd82e090U, 0xbf49dd373d54ee13U,
  0x3e4fe806be7ec851U, 0x3eac31e23e0c8187U, 0xbf0e7959be43f533U, 0x3f0884103ebee75cU,
  0x3dc06b6a3eabb9d1U, 0xbe698cb7bce1ef24U, 0x3eaf7a5dbe20c50bU, 0x3dcb07ffbeba074aU,
  0xbcf410a4bc9e1a1dU, 0x3df9ed733ed0137eU, 0xbcbfcd393dd13b34U, 0x3efda340be9ea3a6U,
  0x3dc5b8b03cb10e2bU, 0xbe40f56abf313f35U, 0xbc1450183f3b8ad3U, 0xbf0979cc3f226874U,
  0xbec174753b8eb6a4U, 0xbd91f1d4be75cbf7U, 0xbd97aac9bdae41a0U, 0xbf165b7d3e07bdd8U,
  0xbc9fabbcbeb50c98U, 0x3ec68c753d99533aU, 0x3ed409463e61df8cU, 0xbca84d393d25d504U,
  0xbedbd587bd51fa59U, 0x3e49a2913e5a2d32U, 0xbda9092fbea01a2aU, 0x3e92ad523e60c2c3U,
  0x3e1bf7e3be6283e9U, 0x3e9cf0bcbe832008U, 0xbebada2fbe51545cU, 0x3e8e28a7be04f81cU,
  0xbb92dd2abe2089adU, 0xbdb2bc603ed90280U, 0x3eb430ef3ef469a8U, 0x3ee5f8c5bdf4633aU,
  0xbda3137e3e90073dU, 0xbf092ad0bdbd4feaU, 0x3e0996493dc22913U, 0xbc6ff9acbd512ef9U,
  0x3e23c8aebe25aec2U, 0x3db521ff3ee5ad39U, 0xbd07857cbdbd8c24U, 0x3f01be6dbcb8e1c6U,
  0x3da7c05dbd8c1d79U, 0x3e3e55b1beffd38eU, 0x3d525a78be2d4f71U, 0xbed441013df9c51fU,
  0x3e8bdb7e3d60ab8cU, 0xbe2240753cc4ae6aU, 0x3e84cfc9be0916d6U, 0xbd3b48f8be6ae939U,
  0x3e2886a73dd4cb38U, 0xbea76df63cbb959cU, 0xbe31fada3e688451U, 0xbe7e55f4bef63afeU,
  0x3eaab6efbd35146aU, 0x3dbb5a17bdae981dU, 0x3eda8ea5be44ca25U, 0x3c17316a3ea5abcdU,
  0xbe6ad7e3be3eeb4eU, 0xbe85294abece46e4U, 0xbe9abe193e9635b5U, 0xbe15be13bd487e7dU,
  0xbd9323c53e8cb791U, 0xbeaa1db03e816aa8U, 0x3e2b2f5b3e41aa20U, 0xbe4bf05cbe0e5f05U,
  0xbc0cd1cfbd9b02e9U, 0xbb2a54983d95e5a0U, 0xbe5110bd3e84f1b0U, 0x3efe94463ecb6249U,
  0xbcbc58ad3e137bfaU, 0xbe2715e4beb67703U, 0x3d9909d3bd416a16U, 0xbe2d12ce3db3e856U,
  0xbcf463b7bf0b4862U, 0xbde28824beb4a35fU, 0x3cdd6237bdeef0bbU, 0x3e044fe7be886a8aU,
  0x3e2b40003e0e86dcU, 0x3e561c2d3e9f1405U, 0x3dcd0064bdac5f10U, 0x3e8ae2b8be52f284U,
  0x3d471a46be474002U, 0x3c36df10be2a02faU, 0x3f025599be39b129U, 0x3e476c7d3e13ab4bU,
  0x3dafc793bd19f79bU, 0xbd32de8abd3376e0U, 0xbca55bfe3dd8620dU, 0xbd53aa0b3d437fd2U,
  0x3e5f9bcbbea17ec8U, 0xbe63a5d6bce99abbU, 0xbe64cdc6bd85bf16U, 0x3df1761e3d822e5bU,
  0x3d5f96d9beb6a46fU, 0x3e60431a3bb1bea9U, 0xbe69d2c13d99b754U, 0x3dc16e743daa7c14U,
  0xbc3dbc4ebe011d51U, 0x3c8ec5fc3e44543cU, 0x3eac7e3c3d564851U, 0xbe45ce323e4d7a39U,
  0x3dcd01ebbb9c198dU, 0x3d8465c9bcaf0584U, 0x3c884ea5bc5286edU, 0x3d1d6d063e192a78U,
  0xbe4046f8bc949561U, 0xbd842f15bccce29dU, 0x3e1800333c94c563U, 0xbe4d64ebbe5aa52cU,
  0x3e1c123d3d9251f1U, 0x3df9167f3e2bd44cU, 0xbd8fefee3d08394aU, 0x3e2fe983bab3f987U,
  0x3d2da5583dde93e0U, 0x3c3cf6ef3d93bb5dU, 0xbcbfc06b3c29bc91U, 0xbe25b2fd3e037162U,
  0xbe1699613d51ed75U, 0xbd91e454beb250e5U, 0x3e36a89fbc8cd87cU, 0x3d422253bdeebfbeU,
  0x3e25ea52bd698bc7U, 0xbdc7f8e9bdc85c0fU, 0x3e8321f13c0b07bbU, 0xbec24dd5bef36a88U,
  0x3df1da0abe5ca2b4U, 0x3dac38fa3d32d877U, 0xbe7d46cbbd1bda5cU, 0x3e9b24253d441b25U,
  0xbd3b7114be526d53U, 0x3d9102123d056123U, 0xbc1d75873d390626U, 0x3da7df49bcf37c8eU,
  0xbcdd7b9b3de5b8edU, 0xbd166b7fbb37ca0aU, 0x3ddbf17d3da93033U, 0x3dd764613d11f093U,
  0x3e6dd213bd971442U, 0xbdb41a293c3c75fdU, 0xbd2c09093e2ae6e6U, 0xbd895b8bbe188a46U,
  0xbe378bf8bd3724f8U, 0x3da5d0d6bcc3b646U, 0x3ca119573ce3ba44U, 0x3b598b30bda8d575U,
  0xbe0d2d053c3a62e7U, 0x3df428983b6c9500U, 0xbd19ba113d138474U, 0x3d6f6c9bbd3fee55U,
  0xbe168db43c83a6b4U, 0x3e4547c6be1f4a60U, 0x3c166899be7f2c11U, 0x3d308ddb3f711dc3U,
  0xbe5d5447bcef0925U, 0x3e51ea9abdde40b0U, 0xbe233df7bf052cb9U, 0xbc22b6afbf022894U,
  0xbd782d303ea110b4U, 0xbdeddd8c3e811583U, 0xbc8079a4be7ff282U, 0x3f4c97073d93479fU,
  0xbd8a216e3e81de1bU, 0xbe5f773fbc55f552U, 0xbe849983bed162a1U, 0x3f36f5bebdb713e7U,
  0xbe060447bd5b72fbU, 0x3d4006acbe20532bU, 0xbda0a226be0f3b71U, 0xbd8e09d93c84a1bdU,
  0x3e5be81abe06c675U, 0xbcc06b6dbe628b36U, 0xbdb1496cbe60d541U, 0xbdc9e1a0be821ac5U,
  0x3eb6da543e9a9a22U, 0xbd1358efbdedcfd9U, 0x3de3b6c5bc1a3636U, 0x3ecab128be02e150U,
  0x3de867203dcf1fd4U, 0xbe2f1bc03e4b689bU, 0x3ea286e13da766b1U, 0xbe0e3ea3be7d3c23U,
  0x3e34dd61bc5de3e8U, 0xbee4fc6abf6077feU, 0x3eef761bbe41f68eU, 0x3e13c83b3e2c619bU,
  0x3e978ea63b770c8fU, 0x3b511c3cbe4618adU, 0x3db923fabea38e63U, 0x3d098dd43dfcf3e9U,
  0x3e6dc00ebe1a63faU, 0xbf7f5df13cfed35aU, 0x3d834e14bee17ffeU, 0x3f3d32b03b9f6e56U,
  0x3e026ab3be693946U, 0x3eba232a3e37d191U, 0xbdf96f68bd6d00bcU, 0xbf1df4743d574c31U,
  0x3bfc1fc93ca6d4b3U, 0xbe254f1b3dd86735U, 0x3f1ece083db5626fU, 0x3d4721e13dfaad81U,
  0x3f1a15c8bd9f4be2U, 0xbe4fcdc73f161ce0U, 0xbdf847dcbf951197U, 0xbe245cb6be377e9eU,
  0x3e866d9d3d4604c8U, 0x3d7398283e74d565U, 0x3eb0d4b7bd2c7158U, 0x3df429debd83edacU,
  0xbf01c30abc87d193U, 0xbe7db5323da2a781U, 0x3ead446c3e762ca3U, 0xbdfcbc843da9d9e5U,
  0x3ec0c859bd83eebaU, 0x3c00859c3e19f129U, 0x3d7b4b7f3f23cd17U, 0x3f34723dbe3bea94U,
  0x3e176b143e536d03U, 0x3f927cc73d574523U, 0x3d239997bf44d0e3U, 0x3dbf31733fbff68eU,
  0xbcb2ebdbbdca8fb3U, 0x3f4fa92a3ea98687U, 0xbe7d7ef2bea15ff9U, 0xbea7dcc53c9fcf11U,
  0x3d14505a3f1b0cf3U, 0x3f818af3be621989U, 0x3f44d754bff8d4cfU, 0xbea35defbf82944bU,
  0x3f239f503cbe78c5U, 0xbd3043bcbe46190eU, 0x3c8eb3483d9d6056U, 0x3e1dd9b7bfa2aebeU,
  0xbed35b2d3fc587e4U, 0xbf7f83d43e2ccabeU, 0x3ecc7c4cbd9d0d41U, 0x3f84a0acbe00ae4fU,
  0xbf18d6afbeba7955U, 0xbde24f433e51ed95U, 0x3ce6ba463d8996feU, 0xbda9c5483ec1927aU,
  0xbdf6979cbc8c30c8U, 0x3d95c4893da7dd7cU, 0xbe12185c3d67f55eU, 0xbf02daa83f5e7c59U,
  0xbe20cdba3d4a151eU, 0x3e7c64c13da1d6a7U, 0x3e06d3dd3e13d4c0U, 0xbdcc24553e7c3b04U,
  0x3e3fa5983d77d702U, 0x3fa9ab3dbd4d76b2U, 0x3f4384a6bf382dffU, 0xbe9a59c2bef72781U,
  0xbf139bc03d8f2ffcU, 0xbd8a78293dbc34dfU, 0x3da99db53e6044e1U, 0xbee6edfc3ea0c3afU,
  0xbdd100fa3f363e89U, 0xbf3f0b0fbd8b1f9eU, 0x3da38a16bfa7b0e6U, 0x3f50a059be32fa9dU,
  0x3cb9840c3d228623U, 0xbdb3b8213f68aa90U, 0xbde8ad92bfb170a0U, 0xbef9fb093e93e5dfU,
  0xbf4b02503e6b4ae7U, 0xbf99fc803f457372U, 0x3de0ad723f54b507U, 0xbed3c4a6bfe8404dU,
  0x3db3b8bebd588fa8U, 0x3ecade413c8968daU, 0xbedb6845bdea2987U, 0xbeea370ebecccf74U,
  0x3f9135ef3f34da1cU, 0xbf9934dc3d877d7aU, 0x3eca4957bd1a97afU, 0xbde4940ebf13a980U,
  0xbd13a5c23bd4c705U, 0x3c2724903da48f23U, 0x3b8b998f3e8e2763U, 0xbe396678bcff8956U,
  0x3e99157ebeaaeba9U, 0x3d475d8dbd94ca85U, 0x3d01c0babc1bb61fU, 0x3e62a6a1bc1e3b19U,
  0xbd39195ebeae7ecbU, 0x3e052167bd5bba92U, 0xbe391bb13d2d73f9U, 0x3cfc15d9bda65853U,
  0xbc8c39473d4e105cU, 0xbe05b0debe051fc2U, 0x3f0366fdbe2fb44dU, 0xbd49d7493dd14c05U,
  0x3e834562bdd2f37bU, 0xbd2ec0323dccf26cU, 0x3db2bb2e3c18124cU, 0x3e29da1cbcef6bf2U,
  0xbe1f8080bd50dc2fU, 0x3e15955bbd158264U, 0xbd98d4433dba020eU, 0xbe4317b4be37760eU,
  0x3e794a0cbc8310f5U, 0xbdf9e40fbc0f9c08U, 0xbd220be6bdfa06aaU, 0x3d7de706bc827047U,
  0x3dc703443d8cb0d9U, 0xbe19e0343e20ef0bU, 0x3d544238bd5b8f5dU, 0x3dcac6fdbd3fea81U,
  0x3ca1f30ebd3e0f87U, 0x3d1a0e083de32a54U, 0x3e8be1ce3cab86b4U, 0x3de8dbfd3da58c10U,
  0x3cf01f98bcfe5155U, 0xbe8a3cc3bd45fd7cU, 0x3ee1ca20bda39e4dU, 0xbe92b534bf03ab3dU,
  0xbdca7cde3d8889b9U, 0xbd9e0b9bbc861391U, 0xbea2f1993db877b6U, 0xbe08cfc53e9488a4U,
  0x3ca66bb4be556270U, 0xbc32d3d6bd81965bU, 0x3aa02b33bdc63efcU, 0xbd13f1153b7c9b86U,
  0xbb57a6403ddcce6cU, 0x3d59d59fbd27b363U, 0x3e00485a3d4e643eU, 0xbda4c420bdca56d6U,
  0xbd19c3a1bd9641ceU, 0xbc2ef68dbdb76bd5U, 0x3dccca193ddbf1c1U, 0x3e08b69abdcfd282U,
  0x3d9f2f7fbdcdb530U, 0xbd4f498a3c72dfc7U, 0xbc890233bd09e2f6U, 0xbd312e473e2a3554U,
  0xbdc83b15bce0c6b1U, 0x3c6209ff3d336963U, 0x3caa1bfb3c337e0aU, 0xbd055a42be76a0feU,
  0xbd38cbac3d474d14U, 0x3d93c0173cd846f2U, 0x3d87eaca3e6d776eU, 0xbe47edbebd57549fU,
  0x3e452189beb629a0U, 0xbda5abb8be01157bU, 0x3caf96103d480006U, 0x3e44318dbc4c062bU,
  0x3cfd3662becb72b7U, 0x3e880ee4bd4d563cU, 0xbe927c413bb9a5f9U, 0x3dd48999bdaf83a5U,
  0x3da8f78a3d9b11b3U, 0xbe117847bd8316cfU, 0x3ea602c5be50c096U, 0xbe73a3bc3d64207cU,
  0x3e571710bd3ada8eU, 0xbc8321b33dd539beU, 0xbc29df7b3da56801U, 0x3e0a8e19bd00e455U,
  0xbea7df22bde27d81U, 0xbc9ccd1abd47c486U, 0xbd63f87f3da08d86U, 0xbdcea214bebbc043U,
  0x3e352f00bc0b7abbU, 0xbdc44f64bd6a976aU, 0x3d57e8a5bd25b3f4U, 0x3da0f70dbc23de2bU,
  0x3d3c803d3d321017U, 0xbdd9f36bb8b3c7b5U, 0x3d6408323d06cea3U, 0x3db8d0643d141c8bU,
  0x3d8844c5bd8fc873U, 0xbce203e73e0e7977U, 0x3e9ea47ebdbefc7bU, 0x3de67cf73d4aa027U,
  0x3d22fa7dbdd389a3U, 0xbe5878dabe1f4b78U, 0x3eeb0440bd97b341U, 0xbe6cced9bee196dcU,
  0xbd7d6393bbd16a2fU, 0xbd136b4b3db72af5U, 0xbe98f49fbd3021f3U, 0x3dc8a0903eae87a4U,
  0x3daa3efebe540fdaU, 0xbc3e472bbd450a8eU, 0xbca58e72bded40e2U, 0xbd8298de3d87c995U,
  0xbd3776273d892fefU, 0xbc56cfbabcb819e6U, 0x3d4c3420bcbd4881U, 0x3d17c400be696045U,
  0xbde131adbd7d1523U, 0xbdd37654be3d4cd7U, 0x3d8313913e6c9507U, 0x3daa3062bde11277U,
  0x3c447b13bd75bfe3U, 0xbd9cb01bbda6d115U, 0x3d02e5f73cfbba8dU, 0x3c93ecc53e138100U,
  0xbd32c088bd4f0d73U, 0xbd52c309bcc67cadU, 0xbd674276bd0a6d14U, 0xbd6b7bf7be946435U,
  0xbdfba12b3d8f07b6U, 0x3ca7d76a3e2fbb1cU, 0x3d85f9f23e2e295bU, 0xbe3cbcf3bd689836U,
  0x3e2ebe0cbea5245eU, 0xbdb6f77fbd82bea5U, 0x3d86ede73e4346bbU, 0x3e038e733c106717U,
  0x3d0bd568bed2e2f6U, 0x3deb41803d9e15deU, 0xbec4fb65bdb6d085U, 0x39e66ffbbb770377U,
  0xbc5f4ab2bd136244U, 0xbdca1bbdbc28f46dU, 0x3eb298efbdc880acU, 0x3dd5a73c3d9cfb9dU,
  0x3daff8dfbdd1dc17U, 0xbd2747a9bcbba753U, 0xbd049d073e02a7d7U, 0x3daf2703bd0435e1U,
  0xbe67e6683cfbfc52U, 0xbd3ba95c3d6500a7U, 0xbe0695d6bd389011U, 0xbe15c5e8be650af5U,
  0x3e4c4dd73dd390afU, 0xbddb64c73dc0a166U, 0xbb80c2c7bdad4b0aU, 0xbde43cc73de21156U,
  0x3d4393cb3d7009ccU, 0x3d8bae473df10862U, 0x3d64c0a43de3ae50U, 0xbdc384c4bd31373fU,
  0x3db5cccc3c8c1f01U, 0xbd1167a9bd4dc5c2U, 0x3e08babbbd1ea528U, 0x3bacef2d3c3e76eaU,
  0x3ca46af53d7e1406U, 0xbe4e09f6be525dcaU, 0x3ea0c38dbd5348b3U, 0xbec246a3bf024ad1U,
  0xbd3a2d5e3d15cd83U, 0xbcd501ae3db67bfeU, 0xbe9b00e2bdb8c2d7U, 0xbdd74d2b3e8225a0U,
  0xbd17e9c6be12d38cU, 0x3da351353dab49c4U, 0x3cdb855dbd77adeeU, 0x3d7caca1bdab4e74U,
  0xbd965a2dbd421eabU, 0x3daec06c3d81c894U, 0x3d66bdbdbcff45f9U, 0xbcee44d4be9ce3b1U,
  0xbe631275bdd5b5afU, 0xbd288eb1bc27bc8dU, 0xbd93fe88bc9425a6U, 0x3dfae3b53ca3d5d7U,
  0x3ce6143e3c563ebdU, 0x3dd216e4bb4f478eU, 0x3e0391cf3d825660U, 0xbc1e49ac3d9ff32cU,
  0xbbc1d4773cdadfefU, 0x3e18e9ce3dadb2b0U, 0x3d2840583dba1698U, 0xbe7dfa00be505270U,
  0xbf1e1be7bd18bb12U, 0xbdb9fdb1beaf3695U, 0x3b3f66953e9c41b6U, 0xbe63e4453d833197U,
  0x3e8ccc673e2b1c5aU, 0xbd34f140bd8b60edU, 0xbdeafbe23f146350U, 0xbdd26b68be66fd73U,
  0xbd5ce39dbeb67271U, 0xbeedf04fbeaebcf2U, 0xbee5ef7f3f27ccd9U, 0xbf2d28d4bdb00c11U,
  0x3d8c223cbe56a734U, 0x3cf9c4f83e1ff0c3U, 0x3f52f5253f1c55d5U, 0xbf438d4cbf70dc86U,
  0x3e5c5a563dae344aU, 0x3b19f2853d78152dU, 0xbd4c58f13dc0091bU, 0x3c7e59bd3f2f681fU,
  0xbe740273bf32f58dU, 0x3bd53a7e3e2194e0U, 0x3e6e9e04beec9fedU, 0x3f255cd8be2103bcU,
  0x3e64bcfbbda43bf8U, 0x3c6398d33e01e9a5U, 0xbd3a02e83e0bc0e5U, 0x3f390175bd67af44U,
  0xbd3e338abd4c3cf4U, 0x3de8f92f3ea3e2bcU, 0x3a63b21dbc61e8bfU, 0xbf6552fabf85e936U,
  0xbf08175abdc37b09U, 0xbf59c6633eaffe5aU, 0x3f01b6debd6b2a09U, 0x3d943a26be9b2688U,
  0x3f5ccd1dbdaae983U, 0x3f0e6f9b3eb6f3b6U, 0x3eb4a1233d9e1c6cU, 0xbf4049e1be2992dfU,
  0x3ef26668befe4b8aU, 0x3f12acc53d577350U, 0x3e6f4378bf3cfb55U, 0x3f7701df3ec5a24aU,
  0xbce3ec5dbb1ecab9U, 0xbf1bab633d6063adU, 0x3e8ae4523ded467bU, 0x3e62ab20bdf7bc6fU,
  0x3d89da283c41add9U, 0xbd42855fbf8695abU, 0xbdcc4e413e1d2b7eU, 0x3f7745dcbe4f3d2dU,
  0xbef9bd7fbde08babU, 0x3e9a4361bf7f7466U, 0x3c3dac973f0de739U, 0x3fe4dd3abeba0c03U,
  0xbec27f60be09aef8U, 0xbe3fd528be0c260eU, 0xbea3630abdadc69eU, 0xbe325a053e3bb048U,
  0x3e77330d3e742ae4U, 0xbe7aaa40bd1da65eU, 0x3f188e223f186d47U, 0xbe091da9be696ccdU,
  0xbe0cd064bd11a931U, 0x3dc24fd83d1f629bU, 0xbe34d5c03f0d2f00U, 0x3e0f7e7d3d3182e5U,
  0x3c3e9f13bf02fe6fU, 0x3d97903dbd9eb771U, 0xbebb2af5be08f828U, 0xbe20ae31bc6e431cU,
  0xbc9c2d09bebc340eU, 0xbc04f1fe3da5695bU, 0xbf7c29f1bea833c4U, 0x3db7bbbc3d84cc84U,
  0xbade4e723e1ed232U, 0xbe62ae973d839c75U, 0x3eec54d1beb58367U, 0xbcfffed33db383e0U,
  0x3d531027bdc2e95dU, 0x3d71e18f3f2039b1U, 0xbca52dd53c9caf79U, 0x3ed9a9e6bc81d0a6U,
  0xbe904a503d08c6abU, 0x3d84e490bd48bbd5U, 0x3e5392e23da73071U, 0xbeec3fe2bf25d133U,
  0x3f1124a0be124934U, 0x3c8d41063ef09f08U, 0x3d294b043ea92cddU, 0x3e5b4133bd5817f5U,
  0x3bb6b5de3d2689a3U, 0xbe92d6babf3ed038U, 0x3ed933fe3c667a92U, 0xbebf24963baa4623U,
  0x3ee4f2d33e5d421eU, 0xbe383783bee1b8c4U, 0x3ed0c8fbbdfc517cU, 0x3cddde433ed8bdc6U,
  0xbc8838663cd5c752U, 0xbf946ba53d035eb5U, 0x3f5681fe3e3db6abU, 0xbdb302e5bee69bb3U,
  0x3e72eb433eff87dbU, 0xbf18ec803d679d03U, 0xbf84fbf0bdc0f038U, 0x3ba72b4a3f061b9fU,
  0xbc4c861fbf47c9d3U, 0x3e91e5263cda21f3U, 0xbea21ae0bd1b4147U, 0x3e4a53223ef1c169U,
  0xbd5651b03c88e88bU, 0xbe15586a3e7a2879U, 0x3e215aa43e1c8ca0U, 0x3dbdda083dc87c34U,
  0xbea6009dbe9d6267U, 0xbf02fcc03f28359bU, 0xbd6fdc73bdbaa2b4U, 0xbe5dce11bee29705U,
  0xbd5872eebd8958b0U, 0x3e1018b03eadff33U, 0xbb2ba1543d2a54b6U, 0xbe1ae9b7be805119U,
  0xbf2e2b72be8c0b60U, 0x3e585072bd91f078U, 0xbd914d023b8633d5U, 0x3c9af32dbf804fd4U,
  0xbe211d03bdbb61e4U, 0xbdb5eeb3be906c39U, 0xbc61e67cbc9073f0U, 0xbe59601a3e8baba7U,
  0x3f852d0bbf3d7fcdU, 0xbf2baf2ebd0a5725U, 0xbf00f4fd3eb688a8U, 0x3edac1063da989f2U,
  0xbd12ff8dbf4db84cU, 0x3c308f16beb728ffU, 0x3e84334c3d823a74U, 0xbf1d065dbdeec706U,
  0x3d3c9161beecd6e1U, 0x3d34e8713e12210dU, 0x3f8270f73f1644bbU, 0xbf8b84e03e72e76fU,
  0x3f497319bd8163e5U, 0x3cfb23093fa62030U, 0x3c5dc07bbd7bbb41U, 0x3d4a250e3ee3265bU,
  0x3ec4d8cebf25f490U, 0x3e13a98b3dc330a2U, 0x3df7fb0fbec071d8U, 0xbd95910bbdd739fcU,
  0x3d89dedfbdda980dU, 0x3a287db3bdc71486U, 0xbd83ea5ebed61350U, 0x3f028903bda955beU,
  0x3c88807c3d0ff300U, 0x3ec5621a3f181b37U, 0x3d99b7aabda4f401U, 0xbe1a5c35bee81c39U,
  0xbf491f2ebe3471cdU, 0xbf139bef3eadcaadU, 0x3cc35f3bbc02ea7eU, 0xbddb0c24bf024325U,
  0x3ee519d63d6eb4afU, 0xbdcbd74cbf4d5206U, 0x3ca607d939f88268U, 0xbfa6ca34be8c64eeU,
  0x3f07e27cbee95df5U, 0x3f48ee5b3cf4e73aU, 0xbdd53ff8bf0f9e66U, 0x3f33c6053e3a879aU,
  0xbd03970a3d963183U, 0xbe99b09fbb8d648eU, 0x3e4257323d30edcaU, 0xbd5d941f3e8eea5fU,
  0x3d358f49bccc6529U, 0xbc511a46beb8acd9U, 0xbe2be5fb3d768f81U, 0x3f90b6d4bdf890f6U,
  0xbde5c68c3d72568cU, 0x3ea026e7bf90688fU, 0x3ac651483edc1545U, 0x3efce4d63dd44697U,
  0xbec82800bc2cf2e6U, 0xbd97dd9bbd380b07U, 0xbe82c4bfbda1230cU, 0xbe6315063de54abaU,
  0x3ef1eb813db94c28U, 0x3e878ca7bbdae3daU, 0x3efa89b63f010c4eU, 0xbc45ab223e326fe3U,
  0x3e9aabe7bd8d7a36U, 0x3ef54d853ddfdf66U, 0xbc9bbab5bf2e52a1U, 0xbee8a9d9be12f2cfU,
  0xbd770946bec66856U, 0xbe1623c83d9e809cU, 0x3e17c89d3e04eca5U, 0xbe062def3cb8b199U,
  0x3dd46ecdbc5696e7U, 0xbdd36c8ebe058df9U, 0x3d69a1ddbd99e27fU, 0xbde0ff8ebd58c3a2U,
  0xbe01f363be2d5892U, 0x3d75439ebe0a4d11U, 0x3e7825643d43e3e9U, 0xbe322dbc3f4144bcU,
  0x3e17cd813dc2a3d3U, 0x3ed37233bd233ea0U, 0x3d2fe70cbc468fecU, 0x3ecaa012bf06687eU,
  0x3beb5e7b3ecc0d09U, 0xbdb172cebdd0c486U, 0xbe07ca9f3f1ea860U, 0x3c33effd3ec8e992U,
  0xbeb6ed643dfe4cb1U, 0xbebc4edfbd883234U, 0x3e2b8439be2a2dc0U, 0xbd64798c3e78cb76U,
  0x3cf11e9fbd6fe5abU, 0xbe5ce7713e8e6edbU, 0x3e5ba5973e146348U, 0x3f5c31eb3e4b1464U,
  0xbd1cb366beb1316cU, 0x3dd3cd753ebc41d6U, 0xbde427b23dd1fb93U, 0x3e1a406bbc4156b1U,
  0xbd73f7373da0b64bU, 0x3e86f33c3f1fb66eU, 0xbeb2d04d3ec0f2e5U, 0xbe96ad13be52c608U,
  0x3d9d9eda3ccf738fU, 0x3e0659013d842a8bU, 0x3e8031043d58bed9U, 0x3e2941cbbec9dfd0U,
  0x3db806e23ed996bcU, 0xbe0105553dd3fe3bU, 0xbdf19ccb3c40286fU, 0x3dae152e3e2a192dU,
  0xbc954bf4bd86730aU, 0xbe7bc3a53dbfba50U, 0xbee5a3f3be30f2a0U, 0xbe3472f8be2c30a0U,
  0x3f045c32be6fff86U, 0xbc914b63bea79d08U, 0xbd25c14bbe44eea1U, 0xbf4d46f73f0d3cb3U,
  0xbe2da4943e80b533U, 0x3ce74c5e3d12fe0eU, 0x3e61baac3e5d8740U, 0x3e9efd183e9ff145U,
  0xbe4216603ea719d3U, 0x3f7ca4f7be9b0fe2U, 0xbc020f8bbc9452f0U, 0xbe72cc1c3f0d37feU,
  0x3f189af23cbbe77fU, 0xbce7466c3d35ce61U, 0xbb68dce93eed94e7U, 0xbe89934d3d8d4df9U,
  0x3f7236d4bee803e8U, 0xbedac3febd8d1e60U, 0xbe1270873cad8c81U, 0xbe16868d3d2f140eU,
  0xbd056076bf7cb419U, 0x3ec6a63fbd62e1caU, 0xbea29c893ecd93c4U, 0xbf0cc3c9bd4c3e78U,
  0x3d8993c7bd7ac922U, 0xbc8c17583e289008U, 0x3f251de1bd5c0c21U, 0xbec7f5943e93e78fU,
  0x3e801825bd732d8fU, 0x3db07496bd3c89c5U, 0xbd50014c3dc17663U, 0xbd66d21fbda8bd98U,
  0xbee149b73dfac9cbU, 0xba3dbfc2bd548e55U, 0x3cf7cb29bbfbb19dU, 0xbeb23a83bdf71b35U,
  0xbba9d68abc98de17U, 0x3d42c9bdbcb7f332U, 0xbd936abb3eaaf48bU, 0x3bff60b73cb1d425U,
  0xbd6d70053dbce4f8U, 0xbbf24e7c3d02239eU, 0x3d3647143d9f30feU, 0x3e8015043eb032e8U,
  0xbcb4a1943e12c2edU, 0xbcc366543e9ad3fbU, 0xbcebc3aebda6f804U, 0x3e02d65d3d91991dU,
  0x3de4d8bdbd8b73dcU, 0xbec2255b3f436c96U, 0x3f08f760bd0b1c35U, 0xbefcc03cbf0d968aU,
  0x3e0afb5abd7bc3c5U, 0x3c28ca6a3d895b03U, 0xbeaa0dc5bdc55408U, 0xbe8772f03ead78faU,
  0x3d870209be25495dU, 0xbc758b813db5bd50U, 0x3ddc327ebd892fb7U, 0x3a4a99923c4ef4c7U,
  0xbd6358d33d963d23U, 0x3c87b4b33e842a65U, 0xbd1d49afbe28726aU, 0x3dbff1edbd6dd554U,
  0xbeb4d182bda13acbU, 0xbe135343bec3618bU, 0x3ce03a23bdc1d1d1U, 0xbf1728aabbefbe4eU,
  0xbdf0e8aebd759878U, 0xbcb1cb753d65bc99U, 0x3d44ad14bd2256f9U, 0xbcdf7d73bc6df243U,
  0x3e9e4fadbdffadbcU, 0x3e059d663dd8d329U, 0x3ef0ddd0bcdde34bU, 0x3a18399abe8a24aaU,
  0x3ee480983db8240eU, 0xbd269a86bd7fcf71U, 0x3b5345d13dd0fb2aU, 0xbe6e4093bd9b82eaU,
  0x3f32c74b3d85e46aU, 0xbef1d02abd626e22U, 0xbe2fa95f3ed13be3U, 0x3cfec2f5bdc2495dU,
  0xbc0e9d4abf20cd55U, 0xbe453c48be931779U, 0xbdb5fec0bd982b70U, 0x3e22098bbe182fc8U,
  0xbd720fa2bed2b0bdU, 0x3e7b41943e89e8faU, 0x3e92e4ed3d96b3d0U, 0xbefd97ca3ed8b864U,
  0x3e2743143d3eef59U, 0xbd935832be251649U, 0x3c97e3763d917944U, 0x3d180ee3be3a0bfeU,
  0xbe35a7913d7f5e08U, 0xbdacadf2be21e547U, 0x3d90a7453d932705U, 0xbd10a0ee3e6cc696U,
  0xbd701779bdb6e52eU, 0xbdc7bd293ca12f3cU, 0x3ce713e5bdaad339U, 0x3e1e9bfe3d825608U,
  0xbb68977d3cc98960U, 0x3e87c6983ed98a02U, 0x3da132643d4b2641U, 0x3e1dc2783d283454U,
  0xbeb5da24bd504e3bU, 0xbed355bebe175b9cU, 0x3e4c7934bd735e11U, 0xbd92f859bef7e0e6U,
  0x3e9ea8f83da73a2bU, 0x3e10bd78bd060d84U, 0x3e62dbabbd7bfec6U, 0xbf7cc154bf2deb60U,
  0x3ed99535be96ad4fU, 0x3e8cdebf3d9ed57fU, 0x3e89c44bbeb1d36cU, 0x3f83dbe43d1702daU,
  0x3d8977833d98e2e8U, 0x3e8283a23d569218U, 0x3e83f10ebec24fd3U, 0x3e206d4bbc9c4572U,
  0x3d86b7adbc1a4f9bU, 0xbd931da93e4eb43bU, 0x3e44a497bd238013U, 0x3ea07c6cbe685c21U,
  0x3ea5601b3c8444cdU, 0xbe8198cabea90f12U, 0x3cd2554b3e0e3b8bU, 0xbe4b018d3e4d095cU,
  0xbea8344fbd1223bfU, 0xbbe2d5a6be4d4932U, 0xbe2019babd8ae26dU, 0x3dc389c13e439ffaU,
  0xbe6ceee8be11b1a2U, 0x3e0c449b3b29f723U, 0xbd09a4203ecaca8dU, 0xbe291e893e3bb0e7U,
  0x3df280603db600b2U, 0xbe2b6fafbda2e293U, 0x3d4b3922bdc88c26U, 0xbd9d2aa53e7e2fdcU,
  0x3f0bf435bf0a93b1U, 0xbdbacd5a3d5aef20U, 0xbf033098bc8e1022U, 0x3ef4c3423e095b0fU,
  0xbd7a2f95bf011825U, 0x3f0d204dbe19b735U, 0x3e1724503d94a107U, 0x3e148123bd3ea5f6U,
  0x3c94cea2be159307U, 0x3c97d2813dc0dfeaU, 0x3eaa50f23e7cac90U, 0xbf11b663bbb82a75U,
  0x3e8663ae3a86cc6bU, 0xbd5877ba3da28acaU, 0x3d9bcce2bd18e04cU, 0x3d8ccbe33dfb6deaU,
  0x3edb70f73c41ceb3U, 0xbe3a32473d0760d5U, 0x3e22b0f2bea7bc6eU, 0xbe26593f3ce67020U,
  0xbe301b10bd8be440U, 0x3d43eedf3e2c0571U, 0x3d08b0b4becfc803U, 0x3eb176b0bc49a267U,
  0xbd831590bd10af76U, 0x3e79c75b3f01b164U, 0xbd399ee9bd6fffabU, 0xbe883461be51bc11U,
  0xbec6ce993d1c6424U, 0xbe8016aabe2e9c76U, 0xbd3c558cbd50c0eaU, 0xbda51854be862979U,
  0x3e9ed169bd4aa829U, 0x3d76c822beaa4cd9U, 0xbdf28965bdb221a9U, 0xbf12fb5fbe72c6a6U,
  0x3e55ad5bbe96097dU, 0x3eb2b7a43db96750U, 0xbdeb23eebe61e95aU, 0x3f07fdb1bde23ba9U,
  0xbda74c203ea8cee2U, 0x3e16edd7bd049b1dU, 0x3e17c88abe63fe6eU, 0xbe3ff1f5beabb194U,
  0x3d47c2963d989a93U, 0x3c9dcbb73caba8deU, 0x3d348a7bbcaf5cc7U, 0x3f1b3d313d0ebf2fU,
  0x3e976cf3bd664f98U, 0xbea85c26be249e12U, 0x3d87a4693e94a2f2U, 0xbda2d6c13ed21365U,
  0xbeaf03233baf589cU, 0xbd38719fbdf1d0bfU, 0xbdcb8a7bbc62876bU, 0xbe8b49be3d6b4d77U,
  0xbd4db6c53db611ccU, 0x3e821a033d60b9c6U, 0xbe1b2ede3e8279ccU, 0xbc2f31b73e89a729U,
  0x3e51c41ebca9689dU, 0xbe09153bbf01e05fU, 0x3d9bee7abf230ac7U, 0xbf1a26cbbe967f2fU,
  0x3eb013a9bf683f0dU, 0x3dd426ecbe8272c9U, 0x3ed527173e8a8498U, 0x3f419499be80b8a2U,
  0x3cc444e5bf0d274fU, 0x3e0c572abe61a5b4U, 0x3edab68cbdde4f59U, 0x3e6f9089bdd86855U,
  0xbd48804c3e3a2508U, 0xbe7f4c4e3de32f1aU, 0x3f453aafbd1c2f0dU, 0xbee9e6aabe202b35U,
  0x3f4dde63bd209e26U, 0x3d0e86603e44dd50U, 0xb9bb9f00bd0c7e94U, 0xbe7aad1bbe6f17fdU,
  0x3ef8bed73e67c68eU, 0x3de29afcbe7dea79U, 0xbe81017d3e6caa2aU, 0xbea309763f0bd460U,
  0xbea886b6be73db17U, 0xbd35b6d9be5948a5U, 0xbcc73443bf3cc447U, 0x3e802b47bc7f832cU,
  0x3e35e7d43dc7d756U, 0xbd94244f3f5c73acU, 0xbdb4a1c0bbad788fU, 0x3f21cdea3ef3a2baU,
  0xbdf7f34ebf03fb4eU, 0xbe99e22d3f0141aaU, 0xbe79cd5abe3608b7U, 0xbdfa95763dfaf770U,
  0x3eaaa753be1ebaecU, 0x3c22a2ccbece04b3U, 0xbec5afa43cd672cbU, 0xbf538bdebf746a04U,
  0x3eb94dffbde0836dU, 0x3d84dc9fbd095267U, 0x3f03e1adbeebdf26U, 0x3f0e985ebec93760U,
  0x3d81709b3ee1c92aU, 0xbc3ae0913cedaa63U, 0xbd22293bbe00b3e7U, 0xbd4c1501be5ab8d1U,
  0xbc25ef0d3d8c9fd1U, 0xbe129aa1be8fa6beU, 0xbe5d41973d818cccU, 0x3e86d629bee7e4d1U,
  0x3ed08d49be6c2722U, 0xbe1c9842bf5b1802U, 0x3df0f829bd69367dU, 0x3e5ffe0a3dea78bcU,
  0x3da12ffebbf5a80cU, 0xbb6f5f17beac9194U, 0xbe6b4ef0bcbc9b84U, 0x3e96005d3ee9f160U,
  0xbd9b4fd8bde24071U, 0x3e29e13abc9cd7fcU, 0xbe4b5f593e967a14U, 0xbe6e9a5f3f259b0aU,
  0x3b20d505bdbe7a3aU, 0x3ed03c4ebddaaf8aU, 0xbe3605053eb94b67U, 0xbe5228febe14eca8U,
  0xbe160a003f02d428U, 0x3c37c6c03dc6878aU, 0xbe0dbc033e07cc59U, 0xbe9371333c533c0dU,
  0x3c86f8bcbf287852U, 0x3f57dbfd3e89813aU, 0xbd82c0503d33e9d1U, 0x3f16b0613dbf6879U,
  0x3d9583fdbf231521U, 0x3e193622bcfed1fdU, 0x3f03119cbed5eba3U, 0xbc732f9e3d8e3815U,
  0xbeb947ad3d0ba4a9U, 0x3dbbd46cbdbb63e0U, 0x3c2820953e828056U, 0x3e19ae91beb85ef8U,
  0xbef7830f3ec2dd26U, 0x3d8250b8beb06eb2U, 0xbedca3c9bbeca4e5U, 0x3f1a2bf03ed57e34U,
  0xbfbf1324bdd318bbU, 0xbdf9f328bf45e524U, 0x3d66c3cb3eb9366cU, 0xbd842e9f3e36f351U,
  0xbd63fbf7be6e77cbU, 0xbd966660be86608bU, 0x3ee62c9a3dce912bU, 0xbe5c4cb8be9c87ebU,
  0xbe98e862bdace6b4U, 0xbec3cf06bdebc3e1U, 0x3deb91373e0b2731U, 0x3bb0845ebf27f371U,
  0x3e9750123e04b9c4U, 0x3f6af48f3e70e2a3U, 0x3f05799f3e4d8f9bU, 0xbd4995f2bed7a7d3U,
  0x3e8fa491bdbe8b23U, 0x3f2079343e47d0aeU, 0xbe17df40bee9cc94U, 0x3f0e1eacbe30bb6eU,
  0x3d968acd3df5766bU, 0xbd155a993d12cb9cU, 0x3c94f1c1beac1017U, 0x3e4b6d203cbac8adU,
  0x3cf53e38bd655bbbU, 0xbda868553e93935aU, 0xbded3d71be713ef4U, 0xbd2dda88be6b4e1fU,
  0xbea19919bdad8f8fU, 0xbe0a3eb43f524db4U, 0x3d0369223f367d7dU, 0x3e061b5b3ea7a174U,
  0x3ec89d2b3c8f483dU, 0xbe5a29cfbe6676acU, 0x3ec185cc3c3f40dfU, 0xbf30de57bd5153a3U,
  0xbed8aa15bde04a01U, 0xbeb3499bbd47922aU, 0xbf767a683e93421cU, 0xbecc52e9bc3d1759U,
  0xbcee3e873d6ed261U, 0x3e9ba89c3ec7338eU, 0x3d820289bd9c74cbU, 0x3e94b1fb3dcf8c34U,
  0xbedaba2c3e34b35fU, 0x3e381d1b3d805cbfU, 0xbf0fab853bb1bb59U, 0xbceba8f73e4c8d99U,
  0xbd27f44e3f3bf6e9U, 0xbc5ae4773e360c2fU, 0xbe987717bdf2caa5U, 0xbecc4f613e7a07e6U,
  0xbe40275a3c679a5bU, 0x3dde705dbde4f436U, 0xbf23d988bd975de5U, 0x3feef5793dcba675U,
  0xbfa53f7bbcd5f5f3U, 0xbc89d7ea3e22ecedU, 0xbc53ca46be382558U, 0xbcab2222be1722a4U,
  0x3d9170333cb1a8b9U, 0xbdb165003db1c64dU, 0xbed5a2d2bdcb962aU, 0x3d13089fbe8ed387U,
  0x3f2d93b73d897784U, 0x3e0614f1be12b3f9U, 0xbcd376493ea0698bU, 0xbf3fc8f7be32d76aU,
  0x3e60ddce3dd44701U, 0xbdee718bbf256ed1U, 0x3f1268793e43ad3eU, 0xbf0cb293bdfb357fU,
  0x3f378da03ea462ffU, 0x3f10a32ebfbf2c72U, 0x3f2529db3c8853aeU, 0x3ea29d7fbdaeebb5U,
  0xbf004cabbea82bedU, 0xbf3c04323eb23abbU, 0x3ed07a7b3da6a651U, 0x3f1d8341bdc71d38U,
  0xbd91b75c3f1902edU, 0xbf802e28bde47c77U, 0xbf24069a3ebf86bbU, 0xbe5c76d7be2a6209U,
  0x3de3b17ebeb4aa78U, 0x3f160b09bccd1315U, 0xbe3439393db4dfb7U, 0x3e4758aabf0e7c42U,
  0xbdb0c9ab3e6a04f6U, 0xbe4fce353ef891e5U, 0x3ee098afbd88f347U, 0xbeb8dc8e3eb19e04U,
  0x3f368a84be2ea614U, 0x3d9d41703de9a982U, 0xbe4adc62bfc3ceceU, 0xbeaf11a1be364864U,
  0x3e9536573e40532fU, 0x3e2835223dd088f5U, 0x3f3804853dcd6358U, 0x3f18fa6dbeb85ad5U,
  0xbf2a676b3de15983U, 0x3cdda21f3dad057fU, 0xbd07cf25be96a908U, 0x3e6210d8beb16a52U,
  0x3f0a537dbd5c8996U, 0xbe0bcac9be85606aU, 0xbc94709fbeb23a93U, 0xbf0e5875bf0004edU,
  0x3f10e9d5bf6c71faU, 0xbf6142d3be2d67c0U, 0xbdbef0143ec3577fU, 0x3ee57cbc3e840e89U,
  0xbd358275bf31d032U, 0x3efd6542bdf8e2eaU, 0xbeacbc8abce9b782U, 0x3dd965eebe033ffcU,
  0xba8ea49abefafe70U, 0xbdb38b4b3f3b9490U, 0x3f2125e6be3c9320U, 0xbe973a673ee98216U,
  0x3e9ad615be1472faU, 0x3d86368f3f1f5609U, 0xbd37ba2abc74300aU, 0x3c975b9b3de88cc0U,
  0x3ef2600b3ee62d6dU, 0xbdcafa25bd3935e7U, 0x3f3b805b3e98c381U, 0xbeee23abbf39ebfbU,
  0x3e6429d7befaa639U, 0xbe0e9ba93f4c4c4fU, 0xbdc1c425bec833caU, 0x3ea7421fbd89ed2eU,
  0x3dd40bb33d90ff87U, 0x3f0cfce43e9f8e3eU, 0x3b9e12ae3c0ad824U, 0x3e3fe18c3ebaf48eU,
  0xbeeb6d64be918548U, 0xbf224a2f3e800667U, 0xbd37e266bc5f0846U, 0xbdc26d23bebf7a63U,
  0x3f0a0fd0bdc46ac7U, 0xbf3f29ddbe8c5ce9U, 0x3de58ccabe60c2e9U, 0xbf55baebbf132767U,
  0x3f1e08d2bef9c3c6U, 0x3ebafb393bc6de4fU, 0xbf0eba89bf073813U, 0x3f7a03f03f12596dU,
  0x3d159746be096fa9U, 0x3cea29a43beec800U, 0x3ed0df3bbf2d2c38U, 0x3f174579bdc8acdaU,
  0x3db42aa2bc529379U, 0xbdd62f373eecda84U, 0xbe9b900bbcc29f34U, 0x3ed6c760be14414fU,
  0x3e2d2047bdafdbb7U, 0xbe6e50e5be8a5d1cU, 0xbd08e2873ec2c9a1U, 0xbe81c7a73e8d6cd2U,
  0xbf36a1c33cfa9769U, 0xbd50a6993d6aec1aU, 0xbebf2e0fbb345434U, 0xbe3438903e56de37U,
  0xbf37f308be1a833dU, 0x3f044cfbbc07a2d2U, 0x3f10b4313f443b30U, 0xbdc2082ebe640f09U,
  0xbf1dc3943dbeb915U, 0x3cacec213e22157eU, 0x3e0666c93ea775faU, 0x3e929bba3f344009U,
  0xbf2064623ef9d718U, 0x3e8ec2903aacd7b8U, 0xbf1ccacb3f0436dfU, 0xbee8116fbeca3470U,
  0x3b818482bdb2717aU, 0xbf8787dd3e9cbe1fU, 0x3e1ac1883f308613U, 0x3f141e3a3e798249U,
  0xbd9f3c1b3de0701aU, 0xbd49a60bbe35239bU, 0xbe4573c73f8d5e7eU, 0x3e9a96d6bf5a9414U,
  0xbe6a1528be5d18b8U, 0x3dd71df73e889274U, 0xbcc316c03c6d4157U, 0xbea0255f3f0f4de3U,
  0xbe6616e2be810692U, 0x3d94c54c3de48b9cU, 0xbd30239cbeb17322U, 0x3efe32e53d915ce5U,
  0xbe76accc3e0ff634U, 0x3e2807ddbe760a8eU, 0xbd3290713eafa5c4U, 0xbe10dcf1be65179fU,
  0xbd5b7e51bc408150U, 0xbe73f4d2bb3bac4dU, 0x3edfa1c2bda8d811U, 0xbefdf87bbe8af180U,
  0x3e157e82be4c7c85U, 0x3cc3ea9ebe30caeeU, 0xbe3b261cbc929c3aU, 0xbd7486a63dda722fU,
  0xbdb31cdebde8e844U, 0x3f53e23f3f2274e2U, 0x3e421c09be0f5869U, 0x3e40501e3e0e41f0U,
  0xbdec9e303e131fd7U, 0x3dee0ff4bcbe16cbU, 0x3e9fc1f5bda14e0fU, 0x3e2703ddbd83e00bU,
  0x3b9663cbbbd6a9edU, 0xbe3d6574bc7fd444U, 0xbe840b2dbd2d760cU, 0xbe87080cbe43309fU,
  0xbd9df466bd6fb9c7U, 0x3d4c64a4bf47bdf0U, 0xbd0a24393f030c9bU, 0x3e256fc53e62c4c3U,
  0xbee027a63dd9558aU, 0x3eecddb9bd898d4aU, 0xbe6bb789bd24999fU, 0x3f54253a3e636caaU,
  0x3e66f9a6bc5d63acU, 0xbcf6e6aabd805967U, 0x3e824520bbf20701U, 0x3cc736cf3c07c73cU,
  0xbdcdd23dbf02aa04U, 0xbf0a759b3d98239cU, 0x3f08dc4cbdda77caU, 0xbe4adcd03d925acdU,
  0x3ea0ff933d97bed2U, 0xbe988949bf3ebc98U, 0x3db1835ebea587b2U, 0xbecc75ecbe12175bU,
  0x3ece1e27bf6f0cf2U, 0xbe936e81beaadbe1U, 0x3ef892163eb9386fU, 0x3f4468cc3e207f67U,
  0x3d6743a4bea27c18U, 0x3d74176cbe7aea76U, 0x3ec020a4bdba34b7U, 0xbe274580be1dc59cU,
  0x3dcbacc7be735a89U, 0x3dcecd543f2d7bddU, 0x3f134b443e26f538U, 0xbe668b303d507767U,
  0x3f3f3d0b3d8f44cbU, 0xbac5bb543b8c4d76U, 0x3b8c69003d14ccf7U, 0xbe63a7dcbe31eeb5U,
  0x3f11b1493f07eb63U, 0xbe565ccabe02958fU, 0x3e773b3c3e7f7320U, 0xbf03a4a43f07d5f1U,
  0xbf1376f3bf13c9bfU, 0xbdb13aa23f440d04U, 0x3d935a3cbf42e69dU, 0x3f251d4b3e01df91U,
  0x3d8398983d2e0e45U, 0x3e5034633f2e68dbU, 0xbe413db33da26914U, 0x3eebe00d3e58dbe4U,
  0xbeb0d390bf0659e2U, 0xbf38dc913f2ab105U, 0xbe062e15bc95bb5cU, 0xbd58d8eebe6b0223U,
  0x3f22b833be03baecU, 0x3ec78eb0bf4788f5U, 0x3dbcca5abea5cbf0U, 0xbf4d302bbf7ca182U,
  0x3f154749bee037ddU, 0x3e87d9143dc40d3fU, 0x3f3f097fbf589a03U, 0x3f65e082bdda72daU,
  0x3cb858ab3e8f92e5U, 0xbef5163f3bf159bcU, 0x3ef45253bf1f6227U, 0x3ebd53e2bf1372b7U,
  0xbd211e1f3d9b3059U, 0x3c23e5fbbe2be352U, 0xbec11135bea426aeU, 0x3f1c1e20bf0abbdaU,
  0xbd030942bd49d923U, 0xbf96a65fbf36365fU, 0x3df249f93dcd5251U, 0x3dd1f2173e400855U,
  0xbf0540f5be10bc06U, 0xbd75990ebdcfe0c0U, 0xbeddc85b3dabd4a7U, 0xbeb621ea3ea1a870U,
  0x3dc942e0bd5bc98bU, 0x3ef27ad23d3ddb81U, 0x3e26695a3f192190U, 0xbeeede6d3f2cc73aU,
  0x3d46d3e7bd8ecf05U, 0x3e1b01763d87b105U, 0xbda288033d010961U, 0xbe2eb0023e286bbbU,
  0x3ef19986beb65eeaU, 0xbde09e16bca2d13dU, 0xbe5e1d813d916eecU, 0x3e3ad382bd151d8cU,
  0x3d4cf75bbf31f24cU, 0x3e2ae09e3d29211cU, 0xbe3250ea3e7ec959U, 0x3dc26df53d9d085eU,
  0x3c8111d2bc1901eaU, 0xbcc4822fbde1822bU, 0x3f2921803d8e1b24U, 0xbe401a79bd9654b2U,
  0x3debbf1abd8dbc01U, 0xbd40c442bb3e489fU, 0x3daeb710bda28c1bU, 0xb9f7c61d3da7f4a1U,
  0xbde411b0be112e1bU, 0x3cdf2eaabd1d820dU, 0xbda867c0bdf2786fU, 0xbd7f2841be6a8a3bU,
  0x3ecabdd83db421f0U, 0xbd8b383abdaf4504U, 0x3c9320f53da9404aU, 0xbe0559733cedccaaU,
  0xbd3fc9663cdd3f5dU, 0xbd7329dbbe0f49e0U, 0xbe0a6ef4bc60847dU, 0xbd2a1afd3e1bfb9fU,
  0x3d1b062c3e528b10U, 0x3dc4ed26bd1c24c2U, 0x3d35c8e1bda169d7U, 0x3e0a4ffbbd4430eeU,
  0xbdc656c73d0a953bU, 0xbef51dca3d61a27cU, 0x3e66232a3dd971b8U, 0xbeb13dc4bf00d828U,
  0xbc9f0b713dd3d2deU, 0xbd3be6bc3d95777dU, 0xbe94143ebce1c890U, 0xbd85d79c3cd8b02cU,
  0xbd002ba2bea17d08U, 0x3d257b363d12f556U, 0xbda9f7253cddfd0cU, 0x3c06ac75bd160e97U,
  0x3db3cecd3d760c1cU, 0x3c8f2ab43da77b04U, 0x3e2dc62e3c078a85U, 0x3da0f695bca1f6c2U,
  0x3d47607ebd401a1fU, 0x3db77b62bd6b47b0U, 0x3d708dbf3db10786U, 0x3ce1cd9cbd0f7e28U,
  0xbdd69fed3d56f540U, 0xbcde82523afb7a23U, 0x3df0de6c3cee96f2U, 0xbccb2c5bbcdcca25U,
  0xbe1c17c6bd7cbc2eU, 0x3d449802bc27a482U, 0xbddfa5e4bddca9acU, 0x3de9df12be90f082U,
  0x3d772fd4bdfea2b3U, 0x3e9d30bebcf1282dU, 0xbd89c517be8b107fU, 0xbcd1f337bdda116fU,
  0xbe16eab0bdc279e9U, 0x3d0dc3cf3bf11b13U, 0xbeede4403e9df702U, 0xbde18b683e743ebbU,
  0x3c71919a3d3c4a3cU, 0xbe9ef6bd3c858d2fU, 0x3d5692a2bd5913bbU, 0x3dc0954e3c43562cU,
  0xbdcee3f63d44344eU, 0x3e04bb9abcc1b636U, 0x3dc23edd3caf62e6U, 0x3c8485583e53635aU,
  0xbe62f11a3e01e2b1U, 0x3dbfc9d7bdc12aabU, 0x3d6fab293cf0c88cU, 0x3ed8cc21bed20a5fU,
  0x3e23da933ea6ce43U, 0xbe5df80ebc6668c4U, 0xbe305a393cb539e5U, 0x3d0a890c3f1e6398U,
  0xbe3df6efbe28b729U, 0xbe8f9785bce1de5dU, 0xbbd6b0e03de9e3f5U, 0xbe172d8d3e0fa42bU,
  0xbdeaf15fbda1ef5fU, 0x3d0c79663da4caa6U, 0x3eaf42bfbd87a2deU, 0xbc6cd837bd123f10U,
  0xbdc514c2be242657U, 0xbdb3eab6bd9e88e9U, 0xbc9b4f6e3e5e8c94U, 0xbce19e6abdd29c90U,
  0x3d82a307bc821dd4U, 0x3e6678463f217f8cU, 0x3daa15ca3ecd7942U, 0xbce97c2dbe32bca1U,
  0x3e4254e83d0a0689U, 0x3db4a2a63dadb900U, 0x3def7754bdbe2588U, 0x3d3e9140bf533220U,
  0x3de9d7533ed05cfbU, 0x3edb7368bdacd873U, 0x3d93463bbdee31cbU, 0x3d2fa2b43d828d1fU,
  0xbddc381dbd9faa8eU, 0xbcbc5fd73e002128U, 0x3c868271bdcf87e9U, 0xbda62454be4ff495U,
  0x3f1b25f8be2714b6U, 0xbe13ac2b3d5e9676U, 0x3d4992f0bed9a455U, 0xbe3069053e8c8069U,
  0xbe0522fc3d9d5c7aU, 0xbe401e853d7eaec2U, 0x3ca20f7ebbcdff6dU, 0x3ccd1c04be27f626U,
  0xbe6bd0553dc9111bU, 0x3e773dbebe2286e8U, 0xbee1be773d2b4733U, 0xbe84b6533e87ef4dU,
  0x3d13e6dabd829792U, 0xbd1fc0793e375336U, 0xbbd798df3eaeaf71U, 0xbdbc321a3e191b7fU,
  0x3dd23d04be96bfc2U, 0x3cb93292be845b20U, 0xbd9b9b17bdf23331U, 0xbd93a682bd8f6343U,
  0xbc216d11be921accU, 0x3e526a713cfda90cU, 0xbf0d2ababcc1b9baU, 0x3dd996e6be00e983U,
  0x3dd8b31c3d86af3bU, 0xbe10b97abdc0f1c5U, 0x3edac620be5ddf0bU, 0x3db79365bd2588ebU,
  0x3e0f820ebdcc1610U, 0x3c69ce9d3df6ece5U, 0x3d0e13ee3cb11d47U, 0x3e179ba2bdbddb1fU,
  0xbed33b7bbd38b49cU, 0x3d4a29e0bd5bbd35U, 0x3bf96134395699b5U, 0xbe3edbfbbe8af4e3U,
  0x3eafc1193d8d2a1eU, 0x3ccebbae3d9f5f8eU, 0x3d7fbe093d83b2cfU, 0x3ded28dfbd32bbd9U,
  0x3b0695f03d188accU, 0xbd4fb030bdae2111U, 0x3e26729c3d046217U, 0xbd99c0893ccc6c6bU,
  0x3e0c42e83cb7c442U, 0xbd58b2c4be92b148U, 0x3ebdd962bc502628U, 0x3cdfed5e3c2f0c27U,
  0x3cbf27413cca336bU, 0xbecc175f3e63463fU, 0x3f0a741bbcd8c0deU, 0xbed007d8beb5eab0U,
  0xbda9fd2d3dbda3e0U, 0xbe860d5fbd0d0673U, 0xbeb1bf26bcd98372U, 0x3e11a31c3e8e687aU,
  0x3b1ace07bed6860eU, 0xbd6a26103d97bf1aU, 0xbd8c2ab4bdb2a840U, 0x3c54e759bc0fbb5cU,
  0x3d8de5663cf04b27U, 0x3c48d57d3d29ae3fU, 0x3e549d21bc1da10fU, 0xbcd3ee7fbe2f0349U,
  0xbe60363abe0d86a8U, 0xbd91275d3caf8bcaU, 0x3d8b87d5bd19616fU, 0x3da51542be881f59U,
  0x3bfaf2063d9fe1b1U, 0x3db4bf803da0f0caU, 0x3d8c62fbbc42aa7bU, 0xbddf0e3b3c5b1ce1U,
  0xbe111c6ebd28c292U, 0xbc39bd303bf57dbcU, 0x3cd427c43c075283U, 0xbdc320babee841f3U,
  0xbec4fe413d160acbU, 0x3d6e7cb33d689976U, 0x3d5cc32bbe019fe5U, 0xbe4a30b53da132ddU,
  0x3e836dc9bf16c7e0U, 0x3e173044bd74d57bU, 0xbdad46343e518670U, 0x3eb98955be4f2040U,
  0xbc66d341bf0dccf8U, 0x3e542f9b3c8f16ecU, 0xbda981c13d95a859U, 0xbe4cfe63be24102fU,
  0x3db7ea05ba0644ceU, 0xbd0dc809bd394c5bU, 0x3f3f3f28bdff5ff2U, 0xbeee4ef4beb27532U,
  0x3e9026ebbd91166aU, 0xbdcfe14b3dff7fa9U, 0xbcbcbf48bbc2dff9U, 0x3e3316013e0ecce5U,
  0x3c3cf458be4e9938U, 0x3e08b07f3cf31247U, 0x3dda20cdbe05b958U, 0xbc9c258fbebc5bb5U,
  0x3ea16d6f3c88a015U, 0x3c7a357e3d35493bU, 0xbd447290be3c3ee4U, 0x3e343638bdab02f9U,
  0xbd7cf64e3ca4ba3aU, 0xbc1fe6113e3d3b19U, 0x3eb1a61d3d1f02bbU, 0xbe7f2c8cbe808f51U,
  0xbe8697f4bda3e65dU, 0xbe14d5763cca3739U, 0x3dcda032bb09cc69U, 0xbbb461dd3d3465e7U,
  0x3e9c6068bdb0abe0U, 0x3e3fd8923bdac8acU, 0x3e6c830bbcf680e9U, 0xbf2f28b2bf22e1a5U,
  0x3e0e6166be9fe754U, 0x3ea3e1443bcc4b4dU, 0xbd186909bd9a32f7U, 0x3ed2fed13e672e29U,
  0xbc03f299be6bfefeU, 0xbe0ee72bbc673f69U, 0x3e083300be38d7e2U, 0xbd256982bd99865fU,
  0xbc78cdbd3dba7838U, 0x3d801cb0bf186416U, 0x3def2e823dc6c5daU, 0x3e83d09abe1d1845U,
  0x3e5efe2bbd4db47bU, 0xbd3b3690be675ddfU, 0x3d8b1f883ccd0960U, 0x3f5b611fbd90fab3U,
  0xbe42e542bdddbf1fU, 0xbde78cf0be25b897U, 0xbda1fe0fbaecf35fU, 0xbe19f4fe3bb65422U,
  0x3dba8c70bafbedbbU, 0xbe71d36cbcc22e66U, 0x3e5a36a73e7795aaU, 0xbe017f8ebe66562fU,
  0x3d3969b03de8801eU, 0x3e0aee463d9dfb68U, 0x3d27a9d3be02e882U, 0x3dec973b3e72f802U,
  0x3ed7db4abd7a1e58U, 0x3e013c99bec478c8U, 0xbe0bbe73bed7fb0dU, 0x3edf76e0be626f99U,
  0xbd03538ebe912231U, 0x3df4579d3e1455d2U, 0xbe98f80bbe836e87U, 0xbe025e423e22a819U,
  0x3c884e5b3e7853c4U, 0xbeae961ebe5db203U, 0x3ec6f388bedfcf44U, 0x3e0edeffbe28de4fU,
  0xbe5c3ffdbe488bdfU, 0xbe87c2343f36e6dcU, 0x3dd59b87bda10de1U, 0x3ea7ea503c9b6e0bU,
  0x3cd0bdb73d5e77d0U, 0x3e58fd0bbe9c7482U, 0xbe8cbdb1be0e1e14U, 0xbea0683cbf29b234U,
  0x3ef82fd03eb55a42U, 0x3d8f4699be390bd6U, 0x3c5bd99abce4eecfU, 0x3e07e4bcbc6f0a44U,
  0x3e83f2bf3e188e31U, 0xbe27ec5f3c880dd3U, 0x3e681b293e0cb5ccU, 0xbea99fdc3d54f1fcU,
  0x3ed67c083df1d246U, 0xbc65075cbe7e8461U, 0x3ec7d11cbeabadd7U, 0x3e6e39e23eb6cd55U,
  0x3dd5bc2bbde3ec1bU, 0xbee78a3dbf302466U, 0x3dea7866bd9091f8U, 0xbeeb4d9ebf193fb5U,
  0xbd1fe1353ddedcdcU, 0xbe37f2b1bdea238dU, 0xbed09b6f3dc52553U, 0x3edd751b3ee1befcU,
  0x3db9630bbeec82f6U, 0x3e9640e23d62793fU, 0xbeb4f1773e545a22U, 0xbe86428c3ee20eafU,
  0x3d9d6f583da55a51U, 0xbd8447dbbe166e3dU, 0x3e927e5bbd18c39fU, 0xbd1956713d3eaa93U,
  0x3d8f08b8be64eb39U, 0xbdc518c43ea49bd0U, 0xbdcb90823de07e6fU, 0xbd2869c9bf273489U,
  0x3eb6d54cbdaa4cdfU, 0x3e7e18173e65b2d3U, 0x3e5fdbf13d46e3e1U, 0x3dc57e91be1d8df9U,
  0xbda94617be6f8c02U, 0xbe374f343d8a945eU, 0x3edef2b93cba2f65U, 0xbd5e8d0cbeaca183U,
  0x3b0f7bdd3b9ce48cU, 0x3c0194ab3e15468fU, 0x3d14cd473e699915U, 0xbdea82c2bd286351U,
  0x3e3d912ebea67455U, 0xbd613c90bde081dfU, 0xbddcc428bd08b94dU, 0x3dc55319bb9470ebU,
  0xbd545b39becc5560U, 0x3dc5ea273dc6aae4U, 0xbe8898fbba613dc9U, 0xbbfa2ba03d58d3aaU,
  0x3d0ea4933dc11986U, 0xbd748b57bc329375U, 0x3efee3cdbe33349aU, 0x3dba0cb7bd4f890fU,
  0x3e506e513d04b28cU, 0x3da8b227bd958cb9U, 0x3c7f474f3d6da8d3U, 0x3e1df29cbccfef70U,
  0xbe8d503c3c9cbe76U, 0x3d01cefebdc4dd24U, 0xbd92f9e83c74a2d2U, 0xbdb99237be2d7effU,
  0x3ddafcbdbd15b1f4U, 0x3d6cd3f63ca5a54dU, 0x3c0d328a3da5fd7cU, 0xbd84d41cbc791ba4U,
  0x3d9de9aa3d856135U, 0xbce9d62fbddef45fU, 0x3d890da53dabac06U, 0xbd29c24dbd0f0238U,
  0x3d69bca73dc864e0U, 0x3c7be4bbbd7677e7U, 0x3e4ef3553999f74cU, 0x3da34a293d70212aU,
  0x3c9aef86bd3758a2U, 0xbe45d64fbe82b2faU, 0x3ed482643d71ea22U, 0xbe8a6ee9bf28758fU,
  0xbd904112bbddad49U, 0xbdd35d0c3d8a42aeU, 0xbec07233bd335215U, 0x3cc024693e6b40e6U,
  0xbd2903b4be804d3dU, 0xbc842261bc971d03U, 0x3b818f3abd76b78cU, 0x3d9cea893d632678U,
  0x3d455729bd3f401eU, 0xbc1d070ebd20f481U, 0x3e33dab23c1974c7U, 0xbd5deab7bd087748U,
  0xbdd21dda3aa21dd5U, 0xbc1d3b92bc1a08e8U, 0xbd624ea6bd387fb5U, 0x3b8fd06ebe4ddeb1U,
  0x3caeab3fbd5d603eU, 0x3dc07095bbcb064cU, 0x3e00ef16bd95f27aU, 0x395da3c9bd386a5eU,
  0x3d0b43c1bd7950fbU, 0x3da5706f3dbdc19fU, 0x3d810482bd623fa4U, 0xbe06bfc2be94e13fU,
  0x3cce462a3c39a2feU, 0x3db454ad3dc9a059U, 0xbd88a03a3e7b0201U, 0xbe0c4b26bc8403d0U,
  0x3e28c3d1bed33ce4U, 0x3dc27e52bd815c03U, 0xbcbdda843d06d266U, 0x3e8079e7bd73345eU,
  0xbcf32820bee4a58bU, 0x3e630cb33c83ac34U, 0xbe99f3cfbdca248aU, 0x3cff7199bc7625acU,
  0x3cb3eab83d2b713aU, 0xbd81298ebdd70f31U, 0x3f2106c1be688ed5U, 0xbe3d23a33e05df2bU,
  0x3e1eb283bda98ad7U, 0x3dd13c8b3d8bc6ceU, 0x3dcb73dd3dd29b89U, 0x3da9c85dbdc990b3U,
  0xbecc6860bd975473U, 0xbd87515bbd954747U, 0xbd9648d43c3818b1U, 0xbdf6ae45be416985U,
  0x3e2b4284bce37060U, 0xbdf4d3fe3d5fad25U, 0x3d342f003dc4e783U, 0xbcd1bb66bd596d4fU,
  0x3d2b2767bc20ba9dU, 0x3cb4bc98bd0aba0fU, 0x3df697c53d8da9f1U, 0xbe28cfd4bb1a93b4U,
  0xbd0fdd003e0815edU, 0x3c801eb13cca25d6U, 0x3e4c820abb889eceU, 0x3d16d3fc3d5ead75U,
  0x3cee58893be7ae7cU, 0xbe6bab7abe4bc71fU, 0x3efbc0e5bbec9dc8U, 0xbe963c80bf108406U,
  0xbcddc8473de75f69U, 0xbe062d1c3ce4521aU, 0xbebf63c1bd842c0bU, 0xbdc86e4c3e6810eeU,
  0xbd7776d1be7369d5U, 0x3cffe8bfbbb946a1U, 0xbd9ec7ad3d30927cU, 0x3d47d67a3cfa5f9cU,
  0xbbfb1681bda334d5U, 0xbd509a7d3d4800aeU, 0x3e099db7bdcc3b2aU, 0xbcb0e342bdfcc9bfU,
  0xbe398eb2bd495071U, 0xbdef63283e014959U, 0x3d5a558c3bfaf473U, 0xbcfa8279bd9d1e59U,
  0x3db7ea3e3be35430U, 0x3d3a37473c9b5627U, 0x3ccbe7c73c069d15U, 0xbd46b0963c888e49U,
  0xbd13f2363c8cf57cU, 0x3c71e003bdc6c538U, 0xbd99f56d3dd18696U, 0xbdaaf890beb048edU,
  0x3db8efe3bd417efeU, 0xbb7c3803bde441e4U, 0xbd5214edbe0a8844U, 0xbe1ea20bbf3e6602U,
  0x3e4c80f7be45048aU, 0xbdfb19363e08ee88U, 0x3ea7448e3e4ce563U, 0x3b408b833ec7edebU,
  0xbd995d9dbec6fe71U, 0x3da55416bcc3c3a3U, 0xbced95d5bd98fe2cU, 0x3ddd0881bb93e5bdU,
  0x3bd0f38dbe466eb9U, 0x3e1927343e41678aU, 0x3f00bf68bbc4382bU, 0xbe8365e73ea65e06U,
  0x3d2fa8153e37653cU, 0xbc9a307fbe23bad9U, 0xbd4093c43d12dc63U, 0x3e115317be330bb0U,
  0x3dae50e93ec3a36eU, 0x3de04672bcf1c87eU, 0x3dad7b6e3edd7376U, 0xbe2b0ad43e40e9d5U,
  0xbeca1269be33ee14U, 0xbd620fba3e55948fU, 0x3d9412363d20ea4fU, 0xbc1634983e200107U,
  0xbd165b753d18745aU, 0x3e767610bec70e90U, 0x3ea18fb0bd38ede6U, 0x3eb88b2fbe43e5e6U,
  0xbe951ea4be0f6fb9U, 0xbe9d7d0d3ea70ceeU, 0xbbf4f3fb3e2f79d5U, 0xbde48d91be97f8acU,
  0x3e7a891b3cf46320U, 0xbe086314bcb173beU, 0xbd13d8213e6eba44U, 0xbe6e7359bf04da91U,
  0x3eca38c1bd9609abU, 0x3e5f418ebd0582c3U, 0xbecc2c8dbe3ccf58U, 0xbb48d827bea45326U,
  0x3b021f0e3e0f7653U, 0x3db4084a3d09f990U, 0x3ea9aaf4be25853dU, 0x3f2532ad3df8f845U,
  0xbdb2d8663d07267fU, 0xbd3604af3ed28947U, 0xbeca3046bddef4faU, 0x3e2d6236be81795dU,
  0x3e3b99003d7abb25U, 0xbe26538e3db9d4fcU, 0x3b3f224fbd855b10U, 0xbed69d7f3db4f6f5U,
  0xbe7c02a53dbaef71U, 0xbd1619aa3daba005U, 0xbe075ea63bdd77b3U, 0xbe6341d73e03796aU,
  0xbe9222cf3ddb1a41U, 0xbe144e70bd81e1a2U, 0xbe1148553e711eb8U, 0xbdc26e313d56fe5aU,
  0x3ed0dd0dbad746c6U, 0xbed304bebede4f6aU, 0x3e1f54fcbee83dccU, 0xbf452057bf61e838U,
  0x3f26eb26bf26c18aU, 0xbf0b40faba8aa09aU, 0x3eece47d3f74a51bU, 0x3f46a4703f615d71U,
  0x3d223a55bf5563a1U, 0x3d87fce9be9a3998U, 0x3df12549bef37052U, 0xbd3d1f8fbea475d6U,
  0xbcf59d25bf317922U, 0x3f85b9523f25c178U, 0x3f7003b03f30cb36U, 0xbf09a2c33f83993aU,
  0x3f1040e53da64e5fU, 0xbd353b8b3e8a447bU, 0x3cb00b38bdf53cf1U, 0xbe55e5c6bf365439U,
  0x3edba2763f4ab04bU, 0xbf244d883e141491U, 0x3f34b0393f36411bU, 0xbea610573e9b07c4U,
  0xbead521abebdaba1U, 0xbd856ce83ee89a97U, 0xbd88d67ebf18f7f2U, 0x3f16a9533dce8297U,
  0xbd3116653d95a3cfU, 0x3f2bd90a3f06bb9cU, 0xbf2c491c3d4a94ccU, 0x3f2d5ae63eb51597U,
  0xbf26f334bf0fdd53U, 0xbf0abe243f009f62U, 0xbf18bf68bd445dfcU, 0xbe4e9edebf794031U,
  0x3f104c2dbda8243cU, 0x3ebc8acfbf2f3629U, 0xbe77247abe8b2637U, 0xbf297757bf795712U,
  0x3f0ebf8ebf3be6c6U, 0x3edbe76abb9c583bU, 0x3d3b9565befa91e3U, 0x3f61619abe7c06e8U,
  0xbd9248fb3ed7f97bU, 0xbee123203d447ddcU, 0x3f2ac72fbf641886U, 0x3f37edaabeac4df1U,
  0xbc91503d3cbe62baU, 0x3d9237e93f993b50U, 0xbf1e1473bf2079cdU, 0x3f1e32cfbf794a67U,
  0x3f45c8ad3cd2f43fU, 0xbf3c5503bf0940b4U, 0x3de8cef13ece84d8U, 0xbf6c76013f2879e3U,
  0xbf37feeabc984a36U, 0xbe7a45e5be95902cU, 0xbebee7cb3d209059U, 0xbee058163f1237b8U,
  0xbf1956ff3efcb1ebU, 0x3f4a2f3d3dbc0795U, 0xbd47dad63f2ac863U, 0xbeb5702d3ea5db7dU,
  0xbda86093bd907228U, 0x3dfd9bba3d975eafU, 0xbd9a1b723e97e0cdU, 0xbe1894d63d99bd4cU,
  0x3e02cfc5be8050d6U, 0xbd1b9e27be69bd98U, 0xbc53c7883c9663a9U, 0x3e37423ebdfbf881U,
  0xbd0e3d97beadd760U, 0x3e81f41b3d46bf9cU, 0xbeac6d34bcc176b4U, 0x3d2c93413d7fae82U,
  0xbd970761bdb4558cU, 0xbcaf1074bc36f739U, 0x3e9c63c4be491dddU, 0x3c85eb643c33b81eU,
  0x3d7a0f6b3d03b97aU, 0xbd965a47bcf3511dU, 0xbb63ce603dbab11dU, 0x3dd2c62a3d68f067U,
  0xbeb87129bda5e18dU, 0x3d96998f3bccbb56U, 0xbbc50b6d3df5c354U, 0xbe3de889be76774dU,
  0x3e3ce50a3e347de3U, 0xbaa143d93d583bacU, 0x3ccd6b96bd4dc4fbU, 0x3cc084183cbd2ee1U,
  0x3dba18643d699ccfU, 0xbcf3a31c3b91f95aU, 0xbd6b8dbb3dd32cd9U, 0xbd02fa3c3cb9ab35U,
  0x3d5d237a3ca95968U, 0xbdb4c2b0bbf1fb87U, 0x3e2334edbc2d8f23U, 0x3e45d878bc922fb9U,
  0xbd5de30cbdb5a40bU, 0xbe599197be019553U, 0x3eb751c73c78225eU, 0xbe89c770bed63e52U,
  0xbcaf23983ce34878U, 0xbdcab8e63db456a8U, 0xbe950f33bd9bf7a3U, 0xbdb2a8f03e9a9286U,
  0x3cf6aa7ebe0dcf2dU, 0x3de1be283d8cd46fU, 0x3c0b32f3bd567198U, 0x3df03592bc2a2487U,
  0x3d0409883d5d1055U, 0xbd096e583d524edcU, 0x3e018aeb3db05f69U, 0xbde11ccbbdaa529eU,
  0xbdf33184bdd61b07U, 0xbd022ac5bd1f6af1U, 0xbda01bdf3b963e92U, 0x3d5b5e82bd321d27U,
  0x3c1d957a3ad6621dU, 0x3b623e41bd8fb5e3U, 0x3d27bc543cf1f2a8U, 0x3cd9c8dfbd64b048U,
  0xbdac87debd055339U, 0x3d8239adbd56b606U, 0xbdd817f4bd643dcfU, 0xbd94eee5be99d60cU,
  0xbe9bbe6dbddc34c3U, 0x3ecb213f3e92c187U, 0xbe0b7fafbce5c0b8U, 0x3d950f6c3e53f863U,
  0xbec0e22b3db7fa49U, 0x3ea7a710bc4ab2f3U, 0x3da39625be662fc3U, 0x3e9db7b53d8c6947U,
  0xbbd5c1dd3ef445b3U, 0xbe776f013e377183U, 0x3e8c7f5abd5120e4U, 0x3e72ad923cd85f6eU,
  0xbd453f7e3e0f4cfbU, 0x3e3feaed3de228c4U, 0xbeb8e98bbeb3fd0aU, 0x3f7551fcbdb584e0U,
  0xbf046a523d24be53U, 0xbd75b107bec269f0U, 0x3c90508b3d3e333cU, 0x3e37d9fcbefad40fU,
  0x3e7403553ecb4e4fU, 0xbdb3d728be4b7213U, 0xbdc20ec1bd946fbbU, 0xbe5d8dc63e677c7eU,
  0x3e1e0005bbf59ec2U, 0xbd8dea36bd97623dU, 0x3df647a1be28342cU, 0xbea6de223e82824dU,
  0x3d166e2d3d6b8ea7U, 0xbc04dd053d965aa7U, 0xbd8def5d3e2ca7bfU, 0x3e779472bec30878U,
  0x3d9c88dfbb940256U, 0x3ca4b7ccbe92464eU, 0x3e8426ccb9e2e8b3U, 0x3c42d72a3c4c5fcaU,
  0xbd931bc2bc7d9ff5U, 0xbeb50fcebec11441U, 0xbe3b5e853eb06203U, 0x3d3b600d3de141e1U,
  0x3db9194e3ddf9960U, 0xbec148513e2a16dbU, 0xbda8bbd13d078969U, 0x3cc32d66be9f799aU,
  0x3cfbccedbda514caU, 0xbd3579a83e283116U, 0xbe37cfd5bd8364f6U, 0x3e61afa83ea81a72U,
  0xbc205f6a3b44bc7fU, 0xbe16a2083eaab1eaU, 0x3d8abb11be5f0498U, 0xbeb6b8143d830385U,
  0x3dc65ed9be02ee33U, 0xbe98a477be1a7053U, 0xbd25d63dbf5652a2U, 0xbec0de0bbcc31629U,
  0x3ccb58223d939f6dU, 0xbda7f7a03e43d0eaU, 0x3ed1e8bd3d5f0420U, 0x3e8f15acbc18cc94U,
  0xbda342a93cdaaf3bU, 0x3e4ba346be16a199U, 0xbe086e243d1f6a0cU, 0xbd3e8e423dde105bU,
  0x3f14d0df3d872b22U, 0xbe426da63d6ded4cU, 0x3e350b213e8ce3d6U, 0x3ec8d117bc42a8faU,
  0xbe5d2a8c3e803990U, 0xbe064a3abed411e2U, 0xbf2c9c6b3a3465b8U, 0xbf2296d9be16cb3dU,
  0xbddf77e73e8e4146U, 0x3dc037a6bea648c4U, 0xbf5b23273d273d03U, 0xbf0785413d957d1bU,
  0x3d922a41beae641aU, 0xbf03ce033f72bf90U, 0xbef861b23df907bcU, 0x3f0d97713e10e79cU,
  0xbdd945f83e484d17U, 0xbda4d4eebdac8b89U, 0xbb89e2873ddb57e2U, 0xbe8f8fa43e7ffc2fU,
  0xbf34632ebd55d410U, 0xbe8e09a4beba43b4U, 0x3ed724ae3eb4a862U, 0xbd66e568bfa1032aU,
  0x3f265aa4bf357dbfU, 0xbe810ce03f3c85ddU, 0xbd08c4a13ef33abdU, 0x3eeb69c3be469e27U,
  0x3e7591093da11476U, 0x3de19a03bf07506aU, 0x3e0db1013d928d8aU, 0xbf24195b3ea53f97U,
  0x3f04d9dc3d2e7693U, 0xbf390915bef5ad66U, 0x3ecc84e7bda6d2aaU, 0x3df1a2403d4feb4dU,
  0x3f35a430bddc71bcU, 0xbf182c073eb227eeU, 0x3f127678bec305d9U, 0xbdaebc603eab9119U,
  0x3f3bae54be4047efU, 0x3dad85da3e1627a3U, 0xbece61babf24764eU, 0x3f3551f53fcb96dbU,
  0x3df8e451bf7ed942U, 0x3ee7c7953e0eb5efU, 0x3c8f4576bea519daU, 0x3f0a45b8bf36cd8eU,
  0x3da02c373cd71f0dU, 0xbc0e22da3e39ba6eU, 0x3e9929a03ef093fdU, 0x3e9f11d13d890d06U,
  0x3cf00219bde979e1U, 0xbe8265b83f2e3635U, 0xbe7fca353f5702eaU, 0xbdc6ca973d0e8484U,
  0xbf2d064abde2b953U, 0x3e3f1c613e248137U, 0xbe4ea2853dc7f604U, 0xbecf08a93d0f9b05U,
  0xbf8a8cf5be8ac373U, 0x3d49b9b83db8d462U, 0x3f2554503f25bbbcU, 0xbd90837fbf33d118U,
  0xbbb8a6a13d07a512U, 0x3cd71e66bce42b3aU, 0x3c2b94993eadbfa5U, 0xbcfdc9a53e064473U,
  0x3ee04f8bbe00064bU, 0x3bd9509b3d3db3f1U, 0xbf64ccabbd8e319dU, 0x3e2c2b72be9b205fU,
  0x3c1517fabe9a79d5U, 0x3e8fbe9f3eea6fd5U, 0xbdedbb483e5614c9U, 0x3e86ab8e3d142995U,
  0x3da2f58fbdfda740U, 0xbd68dfd33e929a50U, 0x3c62c5a2be138749U, 0xbf1afbc73e9cd79fU,
  0xbe7857a13d800ebdU, 0xbe08caccbda78f33U, 0x3c11b9a7bdd563c8U, 0xbcc706583ef8b02dU,
  0x3e7dd67fbebfc2bdU, 0xbd725158bcff6defU, 0x3e858759be92d704U, 0xbe342bcdbe6c5aadU,
  0xbe0e2b7b3d851728U, 0x3d6510fa3e48bd54U, 0xbcea4ec3be29a5bdU, 0x3ead9719bd696256U,
  0xbd9d1c21bd2153efU, 0x3ee211213c7af955U, 0xbe24abe9bccce926U, 0xbf3adba4bea20497U,
  0xbe85024d3d839695U, 0x3e879317bf1f453cU, 0x3e9db5063dc44666U, 0x3d03ecd1bef2e7abU,
  0x3e6938bdbd51bde8U, 0xbdc89bb0be49d6c5U, 0x3e50635abeba0f10U, 0x3da166c6be6c1541U,
  0xbe833b1bbe95e704U, 0x3e896bcebd936c12U, 0xbe09641f3e17e089U, 0x3e9313f73e053d2fU,
  0xbd2232173efb48a4U, 0x3ed6f5583c8b614cU, 0x3e5d2d8ebd963900U, 0xbedcad1fbe3a0fc6U,
  0x3d50844bbda90aa2U, 0x3d7972b83ea3082dU, 0x3f280b203e071bd8U, 0x3e29ac4d3ebe08d9U,
