/**
  ******************************************************************************
  * @file    network_data_params.c
  * @author  AST Embedded Analytics Research Platform
  * @date    2026-05-22T16:24:17+0800
  * @brief   AI Tool Automatic Code Generator for Embedded NN computing
  ******************************************************************************
  * Copyright (c) 2026 STMicroelectronics.
  * All rights reserved.
  *
  * This software is licensed under terms that can be found in the LICENSE file
  * in the root directory of this software component.
  * If no LICENSE file comes with this software, it is provided AS-IS.
  ******************************************************************************
  */

#include "network_data_params.h"


/**  Activations Section  ****************************************************/
ai_handle g_network_activations_table[1 + 2] = {
  AI_HANDLE_PTR(AI_MAGIC_MARKER),
  AI_HANDLE_PTR(NULL),
  AI_HANDLE_PTR(AI_MAGIC_MARKER),
};




/**  Weights Section  ********************************************************/
AI_ALIGNED(32)
const ai_u64 s_network_weights_array_u64[33921] = {
  0xbdcd3327bf25934eU, 0xbe360106bda790dbU, 0xbda20f323da68c74U, 0xbe5df444bf33f20eU,
  0x3e82f50f3e13c5aeU, 0xbe81e5df3e5e4c31U, 0xbd1c1a2a3e2ea180U, 0xbe58240e3eb39e03U,
  0xbe6480973eca680dU, 0xbe1e06303ed24cb8U, 0xbc537fd7bec06332U, 0xbddf0d5dbe03e8caU,
  0xbd24268d3c2f8b77U, 0xbe671328beb169eeU, 0xbeb43ad9be0a419eU, 0xbcc56be03eaf4b0dU,
  0x3d03875e3e7d27daU, 0xbe69df6e3dead52eU, 0xbe597aa8bd629279U, 0x3ee511a3beb79a2eU,
  0xbe8ce6f93e331b19U, 0x3f0a79623c544ac3U, 0xbec22e0a3ea71672U, 0xbe7e53a03e80506eU,
  0xbef1d4ca3ea1e5f2U, 0xbe97c983bf03dfc6U, 0xbe50c9f8be18b841U, 0x3c881bfbbde2ef50U,
  0x3ef54817bbfc0113U, 0xbe87a43b3ebf6c99U, 0xbdcb840a3e319b3bU, 0xbdad76873d4c66a9U,
  0xbda3a3ce3e83fc4bU, 0xbe61843a3d964751U, 0xbe499d14beac47b2U, 0xbe5ee3543e174b29U,
  0xbf689d50bd21861bU, 0xbe799f3a3e181d61U, 0xbe419550bdd71d43U, 0xbe010d443e37e44cU,
  0x3dd11307be651933U, 0x3eacca193c3aa4c4U, 0xbebc7a733ec72ab1U, 0xbea04fe53c8b2068U,
  0xbd5bc66d3e857afaU, 0xbe3706e9be8d77d8U, 0x3e93e120be293a6aU, 0xbd53d4153e76f2c5U,
  0xbea8b697beb3f5feU, 0xbd3e7d15befb4d25U, 0xbe1a7c063e1a30c7U, 0xbea4e5e83e2fe699U,
  0x3d2f4e3dbe813e87U, 0xbe8f2ae43dfc5f66U, 0x3ac78ab4bef7fd19U, 0xbe5f8d153e090d50U,
  0xbec75e773b3cb087U, 0xbee3496d3e38e2c0U, 0xbbf642dfbe1703fcU, 0xbe4569aebe4dbef3U,
  0xbe38e415bf14bf78U, 0xbed96b513d52dca6U, 0xbebd0c0fbe15906cU, 0x3e3c690dbe52c2ffU,
  0x3e4648ecbe559b25U, 0xbe208389beb8d5b8U, 0x3f243ad53ca5dd94U, 0xbe868f65be487240U,
  0xbec79d12be5a8bb8U, 0xbecb8441be9cdccfU, 0x3dda42f2be3eba2aU, 0xbed10daf3eacfce9U,
  0xbebcdf013e25e9dcU, 0x3ca4e4693e131581U, 0xbe2e5eb13ec44085U, 0xbc40f23cbe87fd5fU,
  0xbe0c7e5e3e519006U, 0x3e701ae1be348fdcU, 0x3e81ea363d937aedU, 0xbee77df33e8a47d1U,
  0x3eb53cd4bee37747U, 0xbe49db4cbe2320bbU, 0xbddd9a903c75ec07U, 0x3dc3aa3ebf10126fU,
  0xbe2ceea6bc8b2723U, 0x3e3f9f67bee4ca66U, 0x3f118e95bd592002U, 0xbea20a0fbf2a6916U,
  0x3e5823f0bdcaa52bU, 0xbd83f8163dba4f89U, 0x3d1bb12dbda7edb7U, 0xbe436b0c3e2069e8U,
  0x399116ab3e9a4e16U, 0xbb3863a3be7c5c92U, 0xbe8778f33ea9b65cU, 0xbe71a8b03d6f4ca7U,
  0xbe779de93ede0de8U, 0xbe9b30c0bd9477eeU, 0xbe44ad5cbca5db93U, 0x3d83751cbec5501fU,
  0xbe6f1d38bf35f086U, 0x3ee7515fbe2dcb7dU, 0xbc498f55becb8655U, 0xbdc6ee9cbeffaf58U,
  0xbdb63007be9ce0d9U, 0x3e4fb108be7a9d44U, 0xbeb6d2103dad93fbU, 0x3d05fb1bbe5b5fd9U,
  0x3e8ec8c8bf271550U, 0xbeaf4e463e290a3cU, 0x3e3d2e38be7ba1cfU, 0xbed89af3be55d7a2U,
  0x3e038af53f0b9416U, 0xbe63c7153e32e15dU, 0xbe57800ebc6d3b1bU, 0x3e773c8d3daa5826U,
  0xbe1ef6c53e2115e4U, 0x3d4e5208be698ad2U, 0xbe572b243e8cc278U, 0xbeea460d3e2da03dU,
  0xbe427f653e1d88c2U, 0xbebea4cfbd6146ceU, 0xbf0b25023d211f98U, 0xbdd3f23fbe23cc09U,
  0xbe93763abe0040cbU, 0xbed4977f3e761fb8U, 0x3e30a45abec49362U, 0xbf2607a53bde8e1dU,
  0x3dcb02c73de976a7U, 0xbdb296bf3e2e4483U, 0xbe5deb3b3bcb14b2U, 0x3e36f7163e4d2410U,
  0x3e9ae997bc8ae175U, 0xbdac57ae3d4eaa98U, 0xbd0c2bfb3e22520cU, 0xbdf88e703dd9d493U,
  0xbde9f33a3e2e9087U, 0xbe71d4703ee873cbU, 0x3e117f7bbea06617U, 0xbe60f51dbd648c74U,
  0xbe7f00893e62febfU, 0x3d7c5e35bd4da2f6U, 0x3c8a30b73e651750U, 0xbd5a99e2bd3dec20U,
  0xbe84c0ee3e339002U, 0xbe014b733df416c1U, 0xbe778e913e294d5dU, 0x3e3be018be5a9b4dU,
  0x3d2fc17e3dd0d823U, 0x3d8325e7be1b63d1U, 0xbdea5f313e710711U, 0xbd43676f3debbc41U,
  0x3dd505903e11db0eU, 0x3d0183e0bed1e800U, 0xbe42beab3d4e6b1dU, 0x3e2bca0f3e0c9b1fU,
  0x3ee9246dbe29c0a8U, 0xbd0c59193df5deccU, 0xbd5b56223d940c6eU, 0xbeb76c673d8546e9U,
  0xbe13679abd1e5390U, 0xbc9125293e7b40e1U, 0xbdea71cf3de0088aU, 0xbe6a05ad3cfb38ddU,
  0xbebc53dfbe528e4dU, 0xbd9775753e290914U, 0xbd40c4e93e0c81bfU, 0xbe200ece3dca1c7dU,
  0x3e4a24f0be7d3efbU, 0x3ec3d324bed851e8U, 0xbdd34b5a3e0ca32fU, 0xbe7f3d15393f3238U,
  0x3d406b873d9c4c55U, 0xbe28310a3ea8d766U, 0x3ed6400abec048a5U, 0xbd4d5b093f3bf04cU,
  0x3e41c0493e945e63U, 0x3dad3c7bbe07a2f4U, 0xbdf8ef2f3ef5d16aU, 0xbe0ca94d3cfa0a55U,
  0x3e27cfffbe935516U, 0xbd20d4e43d6ce36fU, 0x3dfcf3903e52b196U, 0xbdb726633de43229U,
  0x3ded42c23e1e9cf6U, 0xbd9d7e1a3e408da5U, 0xbc9776c6be1bb8c6U, 0xbd562b853d4b1f0aU,
  0xbde166a4be0ed09fU, 0xbdf090d53e1c9e5aU, 0xbea64e2f3ef4eec5U, 0x3e9d6ee6beb509e6U,
  0x3e991e21bed81ab7U, 0xbb080e443e355e84U, 0x3eacfb5dbb0a7169U, 0xbe61adb03d5651efU,
  0xbc1ce7dd3e78471cU, 0xbe7e46463de5bfc0U, 0xbe868ec2bda51f92U, 0xbcc32c413e4a43a4U,
  0xbdab90923d68d7f2U, 0xbe5ef6aa3d11b644U, 0x3d18edff3f2a8f3bU, 0x3dbcd140be9002e7U,
  0x3e7ae05d3e8b56d9U, 0x3e662d86beafcf24U, 0x3db1779ebdc54f4bU, 0xbd988ac33ed25aafU,
  0x3e257d47bd0b415dU, 0xbe24592ebc775c92U, 0xbe60f38a3d8648f1U, 0x3ac04355bd29e0e4U,
  0xbe3b8cf83cd003a7U, 0x3d92a8a1bed1390aU, 0x3ee66622be660eadU, 0xbe2e31313dca004eU,
  0xbc900d41bd805138U, 0xbc1c98bb3d8766a6U, 0xbe660f513c8113b9U, 0x3d82fd353e0474e9U,
  0xbdff0acc3cbf91e9U, 0x3dfe2c8e3dd53bc1U, 0xbe5fddce3f0ca173U, 0xbdc6675a3cea10d7U,
  0xbe4ca1413e0cd4f9U, 0xbdcfc1c83e283466U, 0x3eb428f1bed1eba4U, 0x3d84d0373e550c63U,
  0x3e83dfb8bd781703U, 0x3ea5218fbd095a3fU, 0x3ec245a4bd000acbU, 0xbda0c0353e3f13f3U,
  0x3d7162383e57eab9U, 0x3d548453bf0f05ecU, 0xbde0e77f3e0a0bbfU, 0xbd62d0d1bca4d610U,
  0x3e957ff63dfef5ebU, 0x3d8dc13d3e7a290fU, 0x3dfdd2c1bd38df22U, 0xbf2589c7bedee313U,
  0x3e01e98b3f8b44d2U, 0xbdd9ba5bbc094438U, 0xbdadc0033e1c9c2dU, 0x3dc87fac3dc36354U,
  0xbd41b6be3dbb4ebaU, 0x3dbdb785bbf12c76U, 0xbdf5b8333e009fc9U, 0xbdf6f8ad3e1c2157U,
  0xbda8a3933d7bdd24U, 0x3ec724803f13d374U, 0xbdf147aa3dc580d9U, 0x3e8c3cf13e08ac3cU,
  0xbd1132e83e413089U, 0xbdc37ede3db4a42eU, 0x3e4de2b5bf074689U, 0xbef056f0be0ffebdU,
  0xbe7662eb3ed2be98U, 0x3d4df684be8f65cbU, 0xbe03c1af3ee47204U, 0xbe64c02a3ee2378bU,
  0xbe86e3a53e92293aU, 0x3c265fa23d627223U, 0xbe2374ed3ecee388U, 0xbd8c21ff3e99ed1eU,
  0xbd18c28f3e823f1eU, 0x3e37eab63e90872bU, 0x3e24baeebeca6a71U, 0xbe49bac93f0c4c62U,
  0x3e4e17fcbf006c4eU, 0x3e5a7bc2beacdda1U, 0x3e5b87c7bea58e07U, 0x3da4dc63bea5aee0U,
  0xbe3b64013f052883U, 0xbdf7e2653e4e9c03U, 0xbe3c15cf3ee1bef3U, 0xbe1db7613e81523eU,
  0x3c61b9f2be095588U, 0x3dfa14d6be83381fU, 0xbd2f5b7d3e678cfbU, 0x3d86fe45be36e9e8U,
  0xbda4a09b3e8f486dU, 0xbf46254d3d1b5ccfU, 0x3e48a433be8d6021U, 0x3e71216cbeb63b04U,
  0x3e07b7f4beec1b60U, 0x3d5e6b62beba59b3U, 0x3e0b4c21bed9e804U, 0xbe4b70083f0008a8U,
  0x3df88726bed85024U, 0x3d622fb7bea99668U, 0xbe67d6b13ebca49dU, 0x3e5c419abe6b5a8eU,
  0xbe2c6cdbbe852880U, 0x3d617f98be291169U, 0xbe0031b33e5524faU, 0xbcf5b7633e596436U,
  0x3e3a2ebbbef7c8d1U, 0x3e1d7e62bef1e695U, 0xbbb9fa82bdd16174U, 0xbd8b31c23eaf40abU,
  0x3e0e9997becb9e07U, 0x3e5cd115bed1f655U, 0x3e3f0437beb03744U, 0x3cf8562fbe1f69f5U,
  0xbe0a05643efcf724U, 0xbe49dcb13edf23beU, 0x3e4952abbf0013f9U, 0xbd8abaaa3ebb7c6aU,
  0xbe3ddb4c3e97529dU, 0x3de620d0be039f45U, 0x3e8216fabea61fe6U, 0x3cafc9ddbe4a382aU,
  0xbe5afb1d3e6f244cU, 0x3cade6053dc5f593U, 0x3e4da4fabeed9d67U, 0x3d8af215bec81992U,
  0x3e989a4cbed627adU, 0x3d0a9f23bd3c52dbU, 0x3dc4a4f5bedecdb6U, 0x3e295804bf18b823U,
  0xbe578c9a3ef28d58U, 0xbe3c12da3f11c6f4U, 0x3e07be19bee774e9U, 0xbe84ea503e9acc9dU,
  0x3d9988c0becd2fb7U, 0xbdc0c3a63eff9f0aU, 0xbe3c90f63edc8c5aU, 0x3d60333c3d999f59U,
  0x3d3440eabe67844cU, 0x3e148791bed993d6U, 0x3d97949abe124809U, 0x3e41cc87befab4f9U,
  0xbd5418423bfcbc69U, 0xbe28263d3eb2c9c6U, 0xbe51f9e93ec61262U, 0xbd230f47bd18b1b0U,
  0xbe7f87c93ee0b734U, 0x3e1d3eb9beed9d4cU, 0x3e6727b3be7dd344U, 0x3e1385f0bf08fca2U,
  0xbe2e1f9d3f03505fU, 0x3e6a03fbbe982944U, 0xbe30a1b93ea6b598U, 0x3e818488bee6d2caU,
  0x3e507aa9bed957c0U, 0x3de2c6a8bea7d0d0U, 0x3e85c6cebe9b808aU, 0x3d68cb9fbcec09b9U,
  0xbdc482583ea67cc9U, 0x3e118026beb5e2f4U, 0xbe05b66b3ef6b1edU, 0x3d92ffe3bec81e6fU,
  0xbd0c8acb3e570d77U, 0xbe4848643e9d5e72U, 0x3e2caddcbf063016U, 0x3e227b54bf0d3a4aU,
  0xbe5489293ec9e8e4U, 0xbe2954313ea10aa4U, 0xbe64fba33ec0f58eU, 0x3e7d48e1beb9d566U,
  0x3e125016beb5ab91U, 0x3e82ef7ebe94d302U, 0x3d973f82bd172a57U, 0xbe46314c3eff752aU,
  0x3e4f8febbef58191U, 0xbe121a4b3ea1cb53U, 0x3e34eab3bedc596cU, 0x3eba68993e499454U,
  0xbfeba4fc3d70d25bU, 0x3d059c3b3db0117dU, 0xbdf296a13ec8b043U, 0xbc6b43153e484660U,
  0x3d8e7954bdbd7220U, 0xbe8a6fd73e963ea4U, 0x3e48b067bec810bcU, 0xbd6f9adabdd93a63U,
  0x3d8b1192be940cbdU, 0xbe466aed3ea079abU, 0xbd39037d3e7f6cb9U, 0x3e52224ebf0a23e1U,
  0x3e74d826bead4bddU, 0x3cc9218f3db5c994U, 0x3e382b71bf1b8093U, 0xbe10c34a3edf4919U,
  0xbdac5346bf3c297aU, 0xbe6915cbbca54087U, 0xbe35156e3e0cf503U, 0xbeea0f6ebf2ebfd8U,
  0xbe7651f6bddc8259U, 0xbe967e083e3009e8U, 0xbd4974ba3e76bc35U, 0xbe8663773e7bffebU,
  0xbf07cdf93e72a491U, 0xbde59a003ede51b6U, 0x3e54782b3da66f05U, 0x3cdeb496bd61685cU,
  0xbe3f69473e12734dU, 0xbe0ece623e4af6baU, 0xbe9ba30dbe2aacfcU, 0x3db6b6173de41de6U,
  0x3c544ca63e0ad7b4U, 0xbe7fc83fbc089396U, 0xbe84ad1fbd4d7479U, 0xbe225ad33dbe0712U,
  0xbec6651f3e8b1f94U, 0x3dea92b63e77e215U, 0xbef44bdd3ecd1cf8U, 0xbeabc2633e6c0a7fU,
  0xbec158313eb31faeU, 0xbda2ae17bf33f388U, 0xbe79de203e32695bU, 0xbe11bcccbe80989eU,
  0x3e8a23b63e0ed92fU, 0xbee1c5563e8d3e47U, 0xbe3bab853e496dc3U, 0xbdfe0431bc933ecdU,
  0xbe62a2bf3d899aebU, 0xbed5e7c2be7763bfU, 0xbdff0ad3be50d2fcU, 0xbed2c2863dd4406eU,
  0xbf91fe1fbe211545U, 0xbe803f1a3e3bb8d4U, 0xbebb5d33bdc689a8U, 0xbec493e63e40c4aaU,
  0x3e4b99cc3e459b51U, 0x3de78597bde8d937U, 0xbeadd0823e8644efU, 0xbe4d3746bd8a9183U,
  0xbd8b3e6b3f027ebfU, 0x3dce84b3be014cdfU, 0xbe1b69b5bc0a6120U, 0xbe6733173eb590dbU,
  0xbe98ebf8bef795ddU, 0x3e5302b23ea1720dU, 0xbe88a4893e578502U, 0xbe32bfe63e221f93U,
  0x3e5390c93d9a6bd1U, 0xbe701a533e47927bU, 0x3d097382be69deb5U, 0xbe8d42b33dbe3803U,
  0xbe90e32c3cf59464U, 0xbeb774293e6bb2b3U, 0x3e4e99b13e73e46cU, 0xbe7bc11ebd38ed3cU,
  0xbd8541b2bf13e328U, 0xbef7dbdc3d0e9b8bU, 0xbea6b38ebdcee131U, 0x3e799453bdbafb17U,
  0x3e32ec25be8efc8cU, 0xbee3da7abf009293U, 0x3ee842b03e73b1e0U, 0xbe0d28e3bd2fb315U,
  0xbe1fe2b0bcb79f0fU, 0xbeac006abe6624a4U, 0xbdfd6ef9be698926U, 0xbeb87b813e28ca20U,
  0xbe99f0d53ead1e64U, 0xbe4fb2d53e0d7e5aU, 0x3e09920a3dfade17U, 0x3e0e27393da31a4aU,
  0x3da6c8763d957836U, 0x3d4cae13bd1739f0U, 0x3d8bd1e43e1c8e14U, 0xbec574193e4b105fU,
  0x3e63a6dfbf26d4c7U, 0xbd0b37883ed2723fU, 0xbea0f4dbbe4590efU, 0xbeb6f198bf5b039cU,
  0xbe40cf8dbe2cea41U, 0x3d74e8b1be05f31dU, 0xbf01c509bd281734U, 0xbe3857c6bf173afaU,
  0x3d6cee66be0c7e37U, 0xbe435629bdbee4b8U, 0xbdad39b4bea22befU, 0xbe824d5b3d8b4451U,
  0xbe6353923ed35c0cU, 0xbe10551fbe8994baU, 0xbec9cbb53e7b5be8U, 0xbe7d7cfd3e08889aU,
  0xbf0afb1e3e865b55U, 0xbeb6dce5be439a0fU, 0x3cee5e393c1d448fU, 0xbd0595dfbebcae69U,
  0x3eaae126bcd16172U, 0xbccc19983e374623U, 0xbc14ffec3e11dea1U, 0x3e1eb59bbe960921U,
  0xbe2c3a75be6bfc9dU, 0xbd2e30fe3dbd0bf1U, 0xbe9a4e683e6575b6U, 0x3d8a93d93e3af8f3U,
  0x3e691e1fbf4800aaU, 0xbeb0122d3d2acb14U, 0x3d2b8e2f3eaa579fU, 0xbf36a1f0bec019afU,
  0xbebcadbcbd8a92c6U, 0xbeaa858c3e59f15dU, 0xbe07cf683d3b87cfU, 0xbea8acf33eb39118U,
  0xbe877f6f3dbff2ddU, 0xbd4259c3bede05a8U, 0xbe7f26d73e88a989U, 0xbed940c43e742e95U,
  0xbeb980ad3e08bcb9U, 0xbe9f30343db4adeaU, 0xbef2f622bc739cf7U, 0xbcf495533d1a36e7U,
  0xbef94e8cbe59ae94U, 0xbe9895c43eb78c3dU, 0x3e8b048fbecad261U, 0xbf2785a7bdd45d00U,
  0xbc2577313eaa1c46U, 0x3dc096d83ec95f7fU, 0xbda25215be08d518U, 0xbe32c4d63e61efbeU,
  0x3ebfc6dfbdab2bffU, 0x3de04937bf52f4b9U, 0xbf1c03b6be2a3accU, 0x3e2de8b1be33f9fdU,
  0x3d21a049bd89dee1U, 0x3f40dc703e4cf3adU, 0xbf1b164cbdff3180U, 0x3beb29193d07b472U,
  0xbdecbbac3b770176U, 0xbe316ca1be03fb1bU, 0x3e0fb474bf10ff20U, 0x3ec7a2da3e06c19cU,
  0xbd4683c2be420d75U, 0xbe400b083e0f8aedU, 0x3d5a5087bebda7daU, 0x3e2b037e3d90f04dU,
  0xbf3f1bf5becc2016U, 0x3d4dec79bd92f94aU, 0x3d1730f93d8ee34fU, 0xbe876bc5bedd7000U,
  0x3ef0fe0e3d651d7aU, 0xbc9461603ca5a27fU, 0x3acc0b983f1adc4eU, 0xbc8bb5f4be10c1aaU,
  0x3c9161853d4ccaf7U, 0xbdfd773bbe8c1aa7U, 0x3dbac246bea75926U, 0xbf14c8933dbb370eU,
  0x3b3ba7593f3e6e4eU, 0x3e4d218ebe0511dcU, 0x3eac4e06bdbebd29U, 0xbd9413483e94e1b6U,
  0xbdb238c7bd38ba23U, 0xbf119c17bec941f5U, 0x3f47d3443e2d0cccU, 0xbe37568f3da2f670U,
  0xbe6294c03ca754adU, 0xbe1e17ee3caf2930U, 0xbf5a648d3d03d324U, 0xbea379863ea1055aU,
  0xbc53db41bea34dceU, 0x3eb69af0be436315U, 0xbe134a1cbdc60126U, 0x3d58ca3ebdc77ccbU,
  0xbcc4d9863dbd9c5eU, 0xbdadff99bee24902U, 0x3f087ebf3ef64cc2U, 0x3b7b8a7f3e9c972bU,
  0xbf0318c5be4022a8U, 0x3ecacd11bd408cf1U, 0x3e748fe8bd64cad1U, 0x3e2fe2afbda29c5cU,
  0x3d6d1c6fbf01371aU, 0xbe28aa4dbb191405U, 0x3e24c6c93d4b922cU, 0xbda1707bbe0c6e47U,
  0xbe0c9c84be677242U, 0xbea0b9c7bd04f094U, 0xbc89f0afbd50d89aU, 0x3cb59843bf84afe5U,
  0xbc426caf3b05f8ccU, 0x3d664c9f3dc59cd5U, 0x3dabb845be190110U, 0xbca97bf8bc96e8f9U,
  0x3f08e1fbbd155a38U, 0x3dc7b753beb8d041U, 0xbe35ab38bd80c004U, 0x3e1aadc7bddac3dcU,
  0xbbe681dcbe9ff981U, 0x3eb151aa3d028699U, 0xbe862737bdb83d14U, 0x3daef4c23dee4e80U,
  0xbcba54213cdc514fU, 0xbd79e4edbc388f75U, 0x3db3e4d1be3ea050U, 0xbcee317c3d795bf6U,
  0xbd128defbd20667eU, 0xbd850c553d29c021U, 0x3d42ef0c3dc4a54fU, 0x3dff9aebbd725c92U,
  0xbf0839233d882fbcU, 0xbde5eed1bddf2907U, 0xbd7585f9bbb8d207U, 0xbeb82cf0be77bc1bU,
  0x3e1c60dabc39f7f0U, 0x3d366df0bd3699deU, 0xbd048c4f3e889817U, 0xbc6b338e3d5c202cU,
  0x3dd7d9703d9ab50dU, 0xbd2af7203e1f0a7cU, 0x3c8b5fa53e05faffU, 0xbe6f885bbdd301a4U,
  0x3d0eefa13f1bd5bcU, 0xbc3d53dabd3136bfU, 0x3e0fb62bbddd616fU, 0xbd29094e3d981a6aU,
  0xbdffd67d3cd7535dU, 0xbe03c445bdf56502U, 0x3e911d733c2ab72cU, 0xbe29f1b7bdc51fa0U,
  0xbd9f03663d7586b0U, 0x3c9dc3813de186adU, 0xbefa0438bcabe705U, 0x3c8018cb3e156959U,
  0xbd030b1ebd58aae9U, 0x3de430e43b8e892bU, 0xbdd67547bd81a6f5U, 0xbb9392c3bd8aa6ebU,
  0xbbe9de7e3d09fbfbU, 0xbd935695bc0b5416U, 0x3e84c3b93e2f8721U, 0x3ca940d63d8e2cccU,
  0xbe67dba7bdd0d003U, 0xbdc59c493d6b58adU, 0x3e4f135f3c8ff036U, 0xbc03edddbd8c2199U,
  0x3dc846a33b652690U, 0x3d17552dbce8e379U, 0xbd4415f23c506534U, 0x3bb1e2a6bd9827e9U,
  0xbca92959bdde1e98U, 0x3e566bb6bdb24f33U, 0x3c359cca3d820644U, 0xbda1af07bf25103fU,
  0x3c5e747dbc092741U, 0x3dce62e23dd7da03U, 0x3d73b2a0be0d55acU, 0xbd9f82be3e3544cfU,
  0x3ed52336bb018367U, 0x3ebaac2bbe340e74U, 0xbeb58285bde5432fU, 0x3ea53f13bd3dbc06U,
  0xbd709e153d9266d4U, 0x3dd33ef13dc21fa1U, 0xbe06d251be1d7b46U, 0x3c6ed19abc44ce0cU,
  0xbeffd0b8bba74ad6U, 0xbe23a8b7bd916655U, 0x3d8637d13d82e3c6U, 0x3ec239eabd178756U,
  0xbd9fcb2b3a913424U, 0xbd086c6d3e83790eU, 0x3aa407ecbebb9c35U, 0x3ca4577f3a86eb07U,
  0xbe3b6e343c9cc3beU, 0x3d0868463d1528a2U, 0xbd943fc6bdb5b5d3U, 0xbec472f4be009ce1U,
  0x3e44bd103d29cdd5U, 0xbcdde5353ebf5ee7U, 0x3d4d2e8b3e5933c7U, 0x3daa3436be3d0deaU,
  0x3c8ebdb53e138aa5U, 0xbe1517003d4a1d84U, 0x3e0739963d9b604dU, 0xbe2933103e48c514U,
  0x3c7beb053eb62d4cU, 0x3e33814f3e988297U, 0x3d1f1ed2bd3d690bU, 0xbdeb10fb3ef67b82U,
  0x3cec38953cec3fa7U, 0xbe3a2a93bf11e483U, 0x3e3a715d3f18a983U, 0xbe3c4f233bf3c547U,
  0xbe1fdff93c45d44cU, 0xbd8b9396be55efbdU, 0xbece092a3ae46803U, 0xbe1830a93dafc022U,
  0x3d7daa2a3aacd56aU, 0x3f01a8e8bd8a3523U, 0xbdd2e745be34cc93U, 0x3d93b27cbd82c165U,
  0x3d6e1aaa3dc3d85eU, 0x3d22f0dabda0b30eU, 0xbda8647a3ef95e8dU, 0xbe3e88b33e970bceU,
  0xbdadfd143d7f2291U, 0x3de786e6bd8ca7b6U, 0x3d189da3bcc8de98U, 0x3eee4696be85a1a2U,
  0xbce9f85dbd8b5acaU, 0xbe0f3c103e139724U, 0x3d8793d9bb5a6010U, 0xbd5e6d0cbe61633bU,
  0xbf035aa2bdc54d41U, 0xbd2d68f93e148568U, 0xbdd0251dbe38e830U, 0x3f0a8a1bbeda2c40U,
  0xbaebdd703e8c59ecU, 0x3ed5951b3e6dd98eU, 0xbd7684c53e8f7103U, 0xbdd7d50a3d2388c5U,
  0x3d7b3077bd81dbf1U, 0x3e9f15b6bf25e4edU, 0xbf167372bdc4d5ffU, 0x3d0ef4e4be33e6cfU,
  0xbcc5f027bd8f5b88U, 0x3f36f4b13eb9f26dU, 0xbf362520bd6822f7U, 0x3e108c173d93c608U,
  0xbda30ee4bc86d6bbU, 0xbe3eeb8abe6a4686U, 0x3dbbce0ebf0950dcU, 0x3dc02c2e3b561593U,
  0xbd7f8d7fbdb7f867U, 0xbddca4e03e805526U, 0xbd9bcf6fbee8501fU, 0x3d185cda3d42a085U,
  0xbf6afa74bf25b9f5U, 0xbe031abc3cd63743U, 0xbd846b223cc543b5U, 0xbe516363bf268670U,
  0x3eb95e8e3e96d570U, 0xbe0cb1a63e6eace4U, 0x3c411bec3f3bbd1fU, 0xbd0b00f9be5464b3U,
  0xbd68c9473cd7d096U, 0xbdad1a28be99232fU, 0x3d64b1eebe03982eU, 0xbf508cecbd0f212dU,
  0x3e9fbc6a3f6bbd7fU, 0x3e068468beb3c4dcU, 0x3e3e98a8bd30c4b7U, 0x3d852a793e4d4c4eU,
  0x3d6f8d793cd85b31U, 0xbf36055bbeffbe34U, 0x3f42c5973ea0bf2eU, 0x3e04c09e3e472e81U,
  0xbd9afa333e67e03dU, 0xbe17bbddbe045a48U, 0xbf89396ebd90b32dU, 0xbf0d1f073efdc6ddU,
  0x3d6ae0eabe82ac56U, 0x3e8fb070bd9891eaU, 0xbe17a5c73c28d2f8U, 0x3cca8467bd26d181U,
  0x3daa58523c3784bbU, 0xbd6057f3be903504U, 0x3f4233d83e355b59U, 0xbe529a5d3e6aa407U,
  0xbf12e498be2b817fU, 0x3e1db3cdbc42968eU, 0x3e24d5ecbe0f3379U, 0x3f610603be715bd5U,
  0x3c9be685be9d4a84U, 0x3e6a8f2b3e093f35U, 0x3e0a8e7bbc2a3576U, 0x3d5fb192be80d358U,
  0xbde91782bd112fbdU, 0x3df742f63dffadd9U, 0xbd82e8b2bea388a2U, 0x3a0ffc90bf8cdaeeU,
  0x3dd443d9be8311b8U, 0xbed8c38cbea31bb5U, 0x3dfc219ebe12262cU, 0xbe18c2bfbe71cd38U,
  0xbe2c0d70bdc7bd6fU, 0xbeb32c203f0bd20fU, 0x3ed394fd3ef57601U, 0x3e7afcf03e8fa7b1U,
  0xbe1ab584bc3e45e0U, 0xbe50d2d8bdf9b4e2U, 0x3e5965cbbd6ed6e4U, 0x3cd0fed6be239a10U,
  0x3cf6d215be376643U, 0x3efff3563efedee6U, 0x3e676c323e329fc9U, 0xbefedda93ea61593U,
  0x3eb27db33e7b3921U, 0x3e6e091ebf029be7U, 0xbd31e3d33e26efbcU, 0xbcd3f727bdcb019cU,
  0x3e77b8863da6e815U, 0xbe9fcaf53c917214U, 0x3ed1b2d33e89df68U, 0x3db6f3013e11d068U,
  0xbef0519dbeb88383U, 0xbe47e94e3eb45afeU, 0x3e1602f3be393fedU, 0x3db3d8183ee8baf2U,
  0xbd894b68bea70f65U, 0x3e859fb03e3a7e19U, 0xbd5ea8ac3eacd1bbU, 0x3e81a8373e28687eU,
  0xbf07c92cbe9da888U, 0xbf20ce9b3db156b7U, 0xbef6c60b3e80d14cU, 0x3cb19e91bea06a9fU,
  0x3e920f053d35c056U, 0x3dbbbceb3d908ff7U, 0xbe8dedd9bd5c5ae0U, 0xbe5191d4be198885U,
  0x3ed03172bf359d46U, 0x3f08c6813ef3a18bU, 0x3e8dd38cbf298d4fU, 0x3ee6a66ebdeb1565U,
  0x3e8bed303f243ee8U, 0x3d5bd59a3eed5a68U, 0x3ef766e0be1ad335U, 0x3df23f94bd9f0a2bU,
  0xbecd71fdbe2b66edU, 0x3ebd6a7b3d8fd686U, 0xbe0303f9bf2a7216U, 0x3f0808e7bf058af3U,
  0x3ea223dd3ea57828U, 0xbe07f8f5bd1dfadeU, 0x3d0ae9fe3ed70238U, 0xbe2f95723e8c6fb5U,
  0xbd3380b6be910528U, 0xbe69d3c0bedbde7dU, 0xbf0f6fd03e01abd3U, 0xbd66c0fe3ead911dU,
  0xbc6ff2103e205111U, 0x3d4071edbdd7f36dU, 0x3c80cb213ef324fbU, 0xbe8156983ecfa2d6U,
  0xbac9e642bd8824fbU, 0x3d97fb403be1fcbdU, 0xbd0b91eebe24e324U, 0xbd13d918bd4de39dU,
  0x3f018774bdc60eecU, 0x3d777ba9be84703bU, 0xbe6859d13ce68782U, 0x3d8a90073d1ec8eaU,
  0xbd011d90be342b4dU, 0x3e9b4fcf3d93d4c5U, 0xbe0bafecbd7e6b7cU, 0x3c03bffdbdc056d0U,
  0x3c98f896bdd27ad8U, 0xbd7be907bdcdc548U, 0x3e13faaebd304ec2U, 0xbd824668bb7d12daU,
  0x3d7a1e1abc9869d9U, 0xbd698dfe38abdd55U, 0x3d2cdd3cbda60946U, 0xbcbdc2a53db2c79bU,
  0xbe9556023c27be6fU, 0xbc99c2e63d8802e3U, 0x3d954bdc3d232814U, 0xbe87db5abdcb19a9U,
  0x3e0c5f11bca09821U, 0xbda411083da504a7U, 0xbc118d0e3e7749c4U, 0xbc964e493d2e1e8dU,
  0x3d8b2a463c89f061U, 0xbd8668dbbd19898bU, 0x3d76fca1bd112f36U, 0xbe92677e3db86fe4U,
  0xbd884b653edf12d0U, 0x3e00ea0ebd3cf8c3U, 0x3d3268553d2e9fd5U, 0xbc2b7e963acea775U,
  0xbdad70e13ce2e78cU, 0xbdcb8594be8a16a7U, 0x3e93fc6b3d478d98U, 0xbdf2dac2bdd6e26fU,
  0x3c7d42ca3d5d09eaU, 0x3dd6ab363d24a105U, 0xbeadd7c2bc40c3c0U, 0x3d48e12c3e2f26b5U,
  0x3d2ea03bbd8432e0U, 0x3df43983bd33bff6U, 0xbdc838603c21a052U, 0x3ddc1b5c3dbf0bb4U,
  0xbd8223abbccd579dU, 0xbc9fb6f3be49426eU, 0x3e125f5abc146a92U, 0x3d33d3d23db3a8d1U,
  0xbe10fc8cbcc7ca64U, 0xbd625dd03d534073U, 0x3e0a275bbd538db7U, 0x3e18a4e83db10594U,
  0xbd84d12ebe2f4730U, 0xbe083363bd526f1eU, 0x3c199ed43dd47119U, 0xbc96230cbdc487d5U,
  0xbd0dccbdbd255151U, 0x3dc91d773cea1003U, 0xbd9b637bbdc38e7aU, 0xbe0074f6bf03cbdeU,
  0x3dae9869bebbe5ccU, 0xbe5a8edf3e566da5U, 0xbd4b0aabbe3edeb3U, 0x3e2376e43e96b192U,
  0x3d8f47ffbda10fa3U, 0x3f085c30be92478fU, 0xbec3363cbed2be7aU, 0x3e2611083cbf09daU,
  0xbd1329253eda8575U, 0xbdc907743d6d175aU, 0x3d9c8b77bdc84acaU, 0x3db0d3d6bc444b56U,
  0xbf36bacd3dba0139U, 0x3dddf124be3ea019U, 0xbcab08d43e192598U, 0x3edd7107be32f20aU,
  0xbd47f4343bd03137U, 0x3da4c1e23e253347U, 0x3d57ad00beebc8aeU, 0x3cf8067f3a2392d9U,
  0xbe71bef53bf44d00U, 0x3e43d7923d506f0eU, 0x3dfebdcabdb7f114U, 0xbecf92673dfe07a2U,
  0x3ebd68f0be43c46eU, 0x3d6a28db3e61d803U, 0x3d9c0e983a8fb2f2U, 0x3d16cb863e5f253dU,
  0xbd17420d3e0e2816U, 0xbd0ecc8ebcab83a4U, 0x3e1671003d974d09U, 0xbda94eb73de16351U,
  0xbe18b4033ea41cd7U, 0x3e70144e3ec7015aU, 0x3dedf8923ddc2d9fU, 0x3daeea653f0abef1U,
  0x3d4c3392bcd525edU, 0xbe7b42cbbf1de5b1U, 0x3e558fe13f4c226fU, 0xbe1f1cc03db334a7U,
  0xbeb02278be3ed4f7U, 0x3de06fa53dcb3ee3U, 0xbe4c150d3c97db5bU, 0x3dd8d5eb3dac2f7eU,
  0xbe07bca5be66c3f6U, 0x3f10a2403e45692bU, 0x3bc8fcdb3cb607f8U, 0xbd7d8a5c3de5ea13U,
  0xbd2fee8f3d9fe8c6U, 0x3c47c9dabd9bcfbeU, 0xbddc7c3d3ec1e3b0U, 0x3e04176c3e8e7b0fU,
  0x3dbf5d433e1fe555U, 0x3e5870983dbca630U, 0xbbf118b23eacbdcaU, 0x3f00179dbe72b4bcU,
  0x3da640c23c9f894aU, 0xbe2d0d9c3cf08b7cU, 0xbe3b5302bd646eadU, 0xbc72b7f2be3caf64U,
  0xbeb66c513c0c8e36U, 0xbe24496c3cfeefa2U, 0xbd5f5a6a3da18149U, 0x3f0745e9beaf293aU,
  0xbda3bcc83dc385a3U, 0x3e4688e43dad0a4dU, 0x3c1158b93b60b4dcU, 0xbd1740c33de79cdfU,
  0x3eb2404e3db6370eU, 0x3e43507bbea5f3c5U, 0xbe431fb3be189374U, 0x3d71d501be567b5aU,
  0xbdb67ae33d1fb04dU, 0x3e6ae1113e72a22fU, 0xbe61befcbcb753daU, 0xbd2462ab3df43214U,
  0xbe57a8333dde3ab6U, 0xbe173adebe11cfe8U, 0xbda2e76fbc71b670U, 0xbe0abeb7bdd1419fU,
  0xbdf2fed2bde8b4daU, 0xbd253e6b3dd086dbU, 0x3ca4a258bda9169bU, 0x3d81312b3dd34b6dU,
  0xbeaecf58bda21ffcU, 0x3bfd6b5fbd869e96U, 0xbdc1b8b1bdac5ed2U, 0xbe89071fbe901402U,
  0x3e1f07033e4f543cU, 0x3cd905e73ed5b144U, 0xbc9418573e752612U, 0x3dacabafbe285acaU,
  0x3d2e67da3ce6049bU, 0xbc7f138e3c0299a1U, 0x3d70d2d8babba5e1U, 0xbe9147fc3de8d42bU,
  0x3e29ed8a3f089b1fU, 0x3da3038f3d6f9c9aU, 0x3dbcd590be161bc4U, 0x3ce55926bc02a5c6U,
  0xbdedcbc23ce4a01bU, 0xbe4eea4ebf255f54U, 0x3ea062d93edc1477U, 0xbdf6c08dbd3f3eefU,
  0xbe24d8273d96ed65U, 0xbe870179bcfb4fe0U, 0xbec5825ebd3b7ed4U, 0xbe2d13e33e4ec7acU,
  0xbde3f57fbdbdb3d0U, 0x3ec4ce15bda9181aU, 0xbe80382cbd70c7c7U, 0xbe3abb56be4aecd9U,
  0x3d8e8f323e1de6d6U, 0xbe3d7a48be02f290U, 0x3ddb2cc23e474446U, 0xbe3d1a7c3e588bd6U,
  0xbe3cf7cfbe013dbbU, 0x3d26ff53bcfe1c8dU, 0x3e0b3453bd91327fU, 0x3ed9f136bda41289U,
  0xbd32000fbdedd3b0U, 0xbdf432e63dd43f13U, 0x3dc1494bbc2eb540U, 0x3b175632bd3af5f2U,
  0xbe1640cfbd5341c4U, 0xbdcebca63b959e25U, 0xbb27b029be0bfb40U, 0x3def6650bf081ed5U,
  0x3d4a70b93ddebecfU, 0x3e69c6263def544aU, 0xbd93edef3c6c8299U, 0x3d8424d23d4e85e7U,
  0x3efc59fa3d8a0a95U, 0x3e2d4d6abeabf251U, 0xbebca026be4d24c4U, 0xbb38a359be44226aU,
  0xbc2b8d763dd3c013U, 0x3e148fb03e7f9f9bU, 0xbe7e370bbd9c0096U, 0x3c14e68c3d9fef50U,
  0xbe8b0ba73cc5d1dcU, 0xbe3c7adcbe2f1cadU, 0x3d0a9718be09ecb4U, 0xbdc6c72fbe34f349U,
  0x3d112fa4be2ba5aeU, 0xbdda20783e49b533U, 0x3d48eb2abe8df248U, 0xbd0140cfbc8af1f4U,
  0xbecc9615be092dc7U, 0xbc9e541cbcbd9d06U, 0x3d8c0defbe110326U, 0xbeca1586be91c848U,
  0x3e8dec3d3e36a158U, 0xbd65eb893eda4dd2U, 0x3d24420d3ed5384aU, 0x3d038aefbe3bf949U,
  0x3df4c9843e08d6fcU, 0xbdb463a5be658d4fU, 0x3dedf92e3e64542eU, 0xbec5c0c33ea2fca6U,
  0x3e3a96683eec4685U, 0x3e655e943dd700f0U, 0x3dcdd5bc3d020ce0U, 0xbd429c3d3c582453U,
  0xbca6140b3c71f7e5U, 0xbe2121d8bf14e012U, 0x3e8917843ef7fbcaU, 0xbdeee4163e94a4bcU,
  0xbd82b1203dc58c30U, 0xbd16280dbd855327U, 0xbed5ff25ba521e18U, 0xbe7aa3683e010997U,
  0xbe3d5a48be3ece3eU, 0x3e5f9552be0ec2b9U, 0xbe1009733e1d6847U, 0x3d8cc240be2c2b3fU,
  0x3e5914853e4342cbU, 0xbda85a19bdd9a58bU, 0x3e9d3d213e453f48U, 0xbe554b3b3ea44c45U,
  0xbe6d628dbe044689U, 0x3e32bfa23df5c3bdU, 0x3e27cb813cefe0d5U, 0x3ec3e2d6bed14aa3U,
  0xbd239173bed1efa6U, 0xbc526f5c3e21f96cU, 0x3e4b5c793dc2f446U, 0xbd81b138be83a309U,
  0xbdcaa8b5bdc5ff02U, 0xbd5ad6073e197355U, 0xbddd6836bea02d0bU, 0x3e8267a8bef40496U,
  0x3d3b59a0be2e539dU, 0xbe834ecb3e300c5dU, 0x3e00b9733c0d7611U, 0x3e3abe6d3e55741aU,
  0x3c2dbd1f3eba6fefU, 0xbdef49cabe67f064U, 0xbe8d0dcfbeb89098U, 0xbeca6e6c3d5d4116U,
  0xbe39c2df3e9367acU, 0x3d3eab0a3cdd7815U, 0xbe79516d3e5e5543U, 0xbdf40f9d3ead337cU,
  0x3e65666d3e341a96U, 0x3cf17d82bd8dc62aU, 0xbe9375ecbe474b8fU, 0x3e9d0473be8cca33U,
  0xbe663a1fbe329dd6U, 0xbb4ca1443d3a3858U, 0x3ddd7bb6beb82842U, 0x3e21e871be1090dcU,
  0xbcb44076be53352bU, 0x3e712896bdecf669U, 0x3ec5c492be7421f6U, 0x3e88f5a73d508a15U,
  0x3e59adc3bda98b2bU, 0x3ec503dabeae30c5U, 0x3cec3bb43dffccafU, 0x3b50d219bbe811a8U,
  0x3ce96c1fbd4e0ed9U, 0xbe0cbe12bec9611aU, 0x3e15372a3cecb5ccU, 0xbd65583a3d8a3b49U,
  0x3dae81c93d27891cU, 0x3d5b58c2be8ee116U, 0x3e166546bd7f484bU, 0x3e5cd1fb3cd92f01U,
  0xbe5a36c0bded6ba8U, 0xbec42fd53e9f0339U, 0xbd158ba0bef2e8f3U, 0x3e9a34c83ef071c2U,
  0xbeaa452cbe8c0465U, 0xbe5e2664bd1aa76dU, 0xbd6a1d603e770677U, 0x3e9db0f03e0d561bU,
  0xbe4ee3b73d8586eaU, 0xbe9e41e8bd38903eU, 0x3bb072153e836a09U, 0xbde1da71be0187daU,
  0xbd06ad3b3e588a50U, 0xbd69d48e3bba2932U, 0x3df5c2aa3de43c6cU, 0x3e9228033e8b08c0U,
  0xbd884cabbe0d2d12U, 0x3eb9c55d3bece00eU, 0xbe7b6d523d8603a8U, 0xbeb4d3b9bea07bbeU,
  0x3d8a660d3e7ac4a0U, 0x3ea006e73e47bbbaU, 0xbda642863d141037U, 0xbe4d278fbdfdbdb2U,
  0xbdcf934abe17d0e9U, 0xbedc06d53e45a603U, 0x3e317c7b3d019ee3U, 0x3e8a6179bd514c71U,
  0xbe0abdce3c9eec24U, 0xbe2c6f94be89e52aU, 0x3c996704bcc54ab8U, 0xbe03898bbe7cec3bU,
  0x3e96cfe0be2bc8e2U, 0xbee64807bdcdd82fU, 0xbebc2f1f3c9369afU, 0x3e88a2713c0bfb4aU,
  0x3d8e19ddbcf4307dU, 0xbb5a20e5be26f27aU, 0x3d7c28d2bcf39e66U, 0x3d951abebe810883U,
  0xbeeb01f5be6f9288U, 0xbd95f7afbcebc831U, 0x3e9527f43e79b215U, 0xbe65df3b3eaa72dbU,
  0x3ee5d86f3e2a4d63U, 0xbd2939d1bde34459U, 0xbc9921bf3d570925U, 0xbd882d6fbd1f66afU,
  0xbd15a4573e5e1c44U, 0xbe4d24f33dd39429U, 0xbe61bfe53e2130b0U, 0xbe113613be1f9edcU,
  0xbb57c4c5beada249U, 0xbe959e6a3e8120adU, 0xbd439fdf3db96735U, 0xbc6e36693e04e312U,
  0xbe23af183d07bbd6U, 0x3eac37423d1e3a12U, 0xbc0b53de3e89a0c3U, 0xbb2bcec73d138f8aU,
  0xbe9b7c4a3d755b15U, 0xbd85bbcb3f13e27dU, 0xbe3749983e12d7e0U, 0xbe39845ebe924997U,
  0x3e0a60363d52618dU, 0x3d279c4ebf14f8deU, 0xbd01dbd73f018036U, 0xbdfbb38abe317535U,
  0x3e23e2f5bc36f550U, 0x3e695acb3dba64fbU, 0xbe779cfabe8132adU, 0x3e6213423de0ed21U,
  0x3d9efab43eeab781U, 0x3e6ad9efbe5963bcU, 0x3ea6e820be2caf76U, 0x3e1555743a61c146U,
  0x3be62382be5fa14aU, 0x3ee6af6f3e76b90fU, 0xbd3389ec3e831821U, 0xbdd64b0b3da21b9eU,
  0xbdb0bd853e917839U, 0xbda016b9bdd86013U, 0x3de302563ea6fdfcU, 0x3e97f671bc426713U,
  0x3d8cdef0be978f75U, 0xbe5b8f82be7f39eaU, 0xbd939a31bdf0e40fU, 0x3e401d3a3d3b80f0U,
  0xbe8f93e83ea37f0dU, 0x3d82df6fbe802d92U, 0xbe0f3f5b3ddfab7dU, 0xbc228ed6bdfaa219U,
  0x3d187bb23c623062U, 0xbd7fbdda3deb8f1eU, 0xbbbc0250bd970919U, 0xbec3f3c73eb4a1e7U,
  0xbe4786d73d52957bU, 0xbf2ff2cebe192c0aU, 0xbe8604973eefe2a4U, 0x3e62e03f3dd32ea4U,
  0x3c7982a5bf037facU, 0x3e95b47d3f00e318U, 0x3dc44385bd244707U, 0x3c859f22bd0c2994U,
  0xbf6b67d1bc18e26dU, 0x3db712c23e6110eaU, 0x3dfab221bc8de111U, 0xbe88c4063e99903bU,
  0x3be067edbda419d4U, 0x3db2476d3e341882U, 0xbe12fc273f0f8c80U, 0xbe6e0de3be0587a5U,
  0xbdb2edb6bdeeea02U, 0xbe36fd463c320982U, 0xbd0a177fbc089f42U, 0x3df6728dbdbcc6ecU,
  0xbdd9debdbb0e8d91U, 0xbe14c5ad3f017d49U, 0xbe3214253d7bd45aU, 0xbc8b50203ca3d943U,
  0xbdf32548bc240b42U, 0x3e36cbbf3daca32bU, 0xbe7229dcbf13dd60U, 0xbe1440cbbde758c2U,
  0xbde827f23e3aa238U, 0xbd9a5c5d3e85f4a2U, 0x3cc758343dbbc3f7U, 0xbd5a0bf9bee02393U,
  0xbdbfd0143cae39ebU, 0xbdff2a75bc25f883U, 0x3ddcfdd0bcc0d7acU, 0xbc6c73b7beea0e35U,
  0xbdf283cd3d43cba3U, 0x3e1a69813dfccbafU, 0xbce33213bf13efe0U, 0xbdcaf9523e17c931U,
  0xbb5724df3e5e080cU, 0x3e6323f83be813daU, 0x3c98766dbe136716U, 0x3d5b49d1beeed45cU,
  0x3e6c510cbd3d36b2U, 0x3da9ae12be00bfdbU, 0x3d400a7c3c904796U, 0xbd289b553e8da60dU,
  0xbdaf8077bde387e1U, 0xbe5c1d46bda1778cU, 0x3e9dfa513d967264U, 0x3de94087be42a918U,
  0xbc6fd9963e65ef6dU, 0xbc3e38cfbdf6ad91U, 0xbdca5a79bdc888b3U, 0x3deca7ae3d9afa10U,
  0x3e5ca5dd3e5929b1U, 0x3e3bcee9be7095d5U, 0xbd5fb5b23d033d35U, 0xbf44e0bfbe35f4ccU,
  0xbd386b033d94aea7U, 0xbe14cfbb3d94c0b4U, 0x3c711d5cbe9e8c8bU, 0xbda36fd23ea58298U,
  0xbd55e529be84a406U, 0x3f30da06bec66751U, 0xbef44de1bf0198b4U, 0x3e7ecc983e0b4653U,
  0xbcf679cd3ec4d42eU, 0xbea1a9cc3da89de2U, 0x3ecefbb5bec0c183U, 0x3d8b0f6cbededba0U,
  0xbf8d5eb9bee276fbU, 0x3c091acbbd94029aU, 0x3f023e003ead2e24U, 0xbe99b7bcbe3bc354U,
  0xbc5010a23d22db39U, 0x3e4e19f93f0367cdU, 0x3c31e4a43f421c45U, 0xbe3fb2953d3f1d27U,
  0x3dd157e63e436a33U, 0x3de0312c3e5b9f74U, 0x3c533ac43e4c8901U, 0xbc6b80193e966851U,
  0x3eb036c1be15af4eU, 0xbdc125e13ebfa7d5U, 0xbe6153eabe450e88U, 0xbdbeb5473c277205U,
  0xbd97ea54bd8d03d2U, 0x3daccd403da49595U, 0xbe2bd3cf3f3e8290U, 0x3dbb0993bef3dd18U,
  0xbd2bf44bbe0c86d4U, 0x3ea028e93eb74413U, 0x3c3614dc3d1d76beU, 0xbef042ac3edc71bbU,
  0x3e0a4f593e1abe2fU, 0xbe105ef0be640fceU, 0xbe5bab993f056daeU, 0xbf48fef4bda2bc67U,
  0xbe8cb90fbd189b70U, 0x3e607dff3d3ccd47U, 0x3e45dddabe42ca9aU, 0xbc583620bede7eceU,
  0xbdc6dad23db93c8bU, 0x3f26264bbe0aa96fU, 0xbeadd487bea69e12U, 0x3d2c58253e128094U,
  0xbd35f739bea82dcaU, 0xbe897420bc272bddU, 0xbef66fa83f8c2b60U, 0xbad9df0a3ecd82e0U,
  0x3e96930bbe560f5cU, 0x3e8c5ad4bdbca8b5U, 0x3eb48d73bd9242ebU, 0x3f4eacc2be7d7e66U,
  0xbd156a21be5223ecU, 0xbf19a22a3cdadd37U, 0xbd7623babd532e48U, 0x3e1d6b1d3e085608U,
  0xbe73d2e63e4c51e2U, 0xbe4cf4cdbe79c9c0U, 0xbdf0fd723d9265dbU, 0x3ec4baa1bd9a888dU,
  0xbb8d8093bdef6bbeU, 0x3d25841bbd28c189U, 0xbd46234dbeac7b7aU, 0xbe0d3f94bdd9cf9fU,
  0x3e65a95ebe03d796U, 0xbe685982be1f83d6U, 0xbd9e39c63e1ecd90U, 0x3ea40a303d481091U,
  0x3dd64a08be2d27abU, 0xbe740efbbe90101eU, 0x3e30abb2be641a95U, 0x3cc1b589be2fa205U,
  0xbd90a5c7bd9efc05U, 0x3e2697a73e699938U, 0x3e609a2c3ed8796fU, 0xbe806ae93e2fd234U,
  0x3e5511c03e1c3e24U, 0x3d93ad7dbe4cbeb8U, 0xbd98eec53d86dc79U, 0xbe1eb5e73d3185e3U,
  0x3da5dbed3e617c07U, 0xbe183c8e3df7607cU, 0xbd3895bc3dce0d6dU, 0xbeea796a3e9247e9U,
  0x3ccd3f2cbdfd080fU, 0xbe005ba73ec6c050U, 0xbdab5583bd25d42cU, 0xbbda61693df9151cU,
  0xbdb35ff6bc957455U, 0x3e88c7ca3dbe0504U, 0x3d61903d3dcbf6aaU, 0x3e2439533def2127U,
  0xbe092fc43e11003bU, 0xbe0d9ae53ef87071U, 0xbe20a7633e4066cbU, 0xbe456a913d0b5258U,
  0x3e2405c83e41c5f8U, 0x3dc438e4bf335089U, 0xbe5a03583f44139aU, 0xbe8d0741be9b95c4U,
  0x3d06d18fbd9eba2eU, 0x3e7f295a3dbb8b65U, 0x3cdcfb14beb31e55U, 0x3e542fe6be06c96dU,
  0x3e22db923e45098bU, 0x3ef8af08bbb2743eU, 0x3d8d2c29be2205b6U, 0x3d761e3a3e5b402eU,
  0x3a1470e3be1bd1b0U, 0x3e36301abc3124adU, 0xbe7b5a60bdea8b26U, 0x3d1e1da1be5fbfaeU,
  0x3e3e1d153e40223aU, 0xbd8d637bbd6010a8U, 0x3e9fc0693de37df5U, 0x3d7b56353e83efa5U,
  0x3e0f097abc877919U, 0xbed6fe00bd820c2aU, 0xbe863a84bd8df8c3U, 0x3e1f0b733e46fadbU,
  0xbea5b65a3e8dbd3aU, 0x3e0ff269be81bc1fU, 0xbe364fbf3d233392U, 0xbd8de559bdfc7d8bU,
  0xbc2aa66a3e1c0d1fU, 0x3e3373843dfef125U, 0xbd86f291bd1b8154U, 0x3d04e9e23e24a2bcU,
  0x3f4317dbbd1c9669U, 0x3e61b005becf0715U, 0xbeee9321bcb207dbU, 0x3d2eb39dbd7b508dU,
  0x3d7fa4fbbe6536a9U, 0x3ee8c8c73e251088U, 0xbee93976bca39b93U, 0x3d782505bce0b28eU,
  0xbe64b0cf3da53e28U, 0xbdff6177be251a01U, 0x3d805aa7bebe9bc1U, 0xbe0cec5a3d3a7836U,
  0x3d02f96fbda6d1efU, 0xbc8973833e312f3bU, 0xb9a9dac2beb00b26U, 0x3d75e77c3d3c0976U,
  0xbf32dbb5be48c438U, 0x3c983affbd4c5ba8U, 0xbdb4989fbd958407U, 0xbef4a30bbea8fba5U,
  0x3e91fd273bcc5c68U, 0xbd196bb53e96caf0U, 0xbd8713e03f13f124U, 0x3e108b72bcf76f8aU,
  0x3d50af793e152088U, 0xbc8a8af2be24d627U, 0x3dab322a3d28f586U, 0xbf0e50993da51b91U,
  0xbc82ebb33f2727f3U, 0x3df17a41be34650fU, 0x3e2bbbc5bd302b8aU, 0xbe0b59783e6b9437U,
  0xbcd23bf2bd020de3U, 0xbec9179dbf1f34caU, 0x3f006beb3e44cc6cU, 0xbdc607b3ba24f4d5U,
  0xbd9f47d13d4af4cfU, 0x3d682c643c185306U, 0xbf28b271bded5bf2U, 0xbe3d9b133e11488bU,
  0xbd3dfb24be82e9b0U, 0x3eab5d1ebe3b4e0dU, 0x3c0816a83e12f04aU, 0x3d8d05b8bd4613fdU,
  0x3d7346633d720db1U, 0x3d81cf0ebe80ca57U, 0x3ee0d0a0bd39cec9U, 0xbcf520383e543cdbU,
  0xbe9e9c49bda1460eU, 0x3e0c4b703cf9f144U, 0x3e1b1325bd23a3b3U, 0x3f0c1a78be17f459U,
  0x3d214263bedf058cU, 0xbda7a53c3bd10453U, 0x3e35e496bd9e7d10U, 0xbc86da24be5eac64U,
  0x3cc3890fbdc322b4U, 0x3de1a9753d04fe44U, 0x3cb88b3cbe238c27U, 0x3e9101cabf61018aU,
  0xbd8d54b23e10684aU, 0x3df6b87e3db322e7U, 0x3de6a97b3d359ab1U, 0x3b9eb9373e285b4bU,
  0x3edae5df3dd2d993U, 0x3e4af1a0beb5065bU, 0xbeb6378ebe271894U, 0xbd22c650bdbb8353U,
  0xbcc071723d5f9c53U, 0x3eb012813e1046f5U, 0xbe8f97febe129659U, 0xbd8f72583e075ff5U,
  0xbe4a553abc6b05faU, 0xbe0a1dfabd456ed0U, 0xbda32728be4910e8U, 0xbd45b122be5fcb75U,
  0xbd57ea8ebdfb7fd3U, 0xbd4fbdd83e510182U, 0x3d70a6e43c54d841U, 0x3de069713d8b6defU,
  0xbe807804be85cd61U, 0xbdf44d2b3afd5294U, 0xbd81113cbe04114fU, 0xbedf744cbea03013U,
  0x3e32a2673df267acU, 0x3cb02b763ed871bcU, 0x3dd9f3153e8a815bU, 0x3da64b22bdd208a0U,
  0x3e01ea553e026e31U, 0xbd854387be738203U, 0xbdc2ffd83e329ce2U, 0xbe6ca581bdff4d1fU,
  0x3d1186103edb1878U, 0x3e33961dbd8ad0acU, 0x3e0a9c9ebdb90511U, 0xbd4401e23e0c3d2fU,
  0x3d323e353c8b16f4U, 0xbe8b41afbf047a65U, 0x3e8ac6e43efb8d74U, 0xbdab1da73e8486eeU,
  0xbe09d8ff3d13ce94U, 0xbc4981ec3cab2cbdU, 0xbee5465dbd9cbc4eU, 0xbd09bbcd3ebd31d7U,
  0xbde99c5ebd881390U, 0x3ee578403d018737U, 0xbe02888d3d61e306U, 0xbdccf3b1bdc2aa96U,
  0x3c0458773d86573dU, 0xbcfe83e9be83e6cdU, 0x3e90caab3ad9e126U, 0x3baa21093e820545U,
  0xbe6b2e67be053afaU, 0x3e6f03533da14206U, 0x3e5003003d3a4bb5U, 0x3f149fe7be8bfc8cU,
  0xbd2bf1afbecb0291U, 0xbbbbbc2f3d9cfbebU, 0x3e2f88fd3d87cbf1U, 0xbbc1a990be12b25fU,
  0xbd3ab02abdf96862U, 0xbe26146a3dc8bb8eU, 0xbc145d173ceafac5U, 0x3e8ccf59bef64086U,
  0xbe4876ab3e7eaaa4U, 0x3d92bd7e3df35ca5U, 0x3d45d4dfbec84be6U, 0xbe5e9db63e7c15bbU,
  0x3e8591e6bd6cd5b8U, 0x3ef079e0be93f423U, 0x3ca237ddbecf27dfU, 0x3e8803af3ca0c7fbU,
  0x3dc744083d8ecb5cU, 0xbead43533e83ae78U, 0x3ee44451bea7cb5dU, 0x3e378a8cbe591a63U,
  0xbf0e8d56be46c8fdU, 0x3d00d0633c373d13U, 0x3da12a993e4b2af8U, 0xbe3baf1fbd89c868U,
  0xbdde7d43bdea48baU, 0x3e5dd3f73e5a697fU, 0xbd5f90453f1be18bU, 0xbd823482bcf75433U,
  0x3e6813003e2d1eb2U, 0x3e2f836e3da5ddceU, 0xbe0653dcbd95110dU, 0xbe939ef23eace251U,
  0x3e2a0c573e7f83b5U, 0x3db67427be4dff49U, 0xbded76cdbe6f16a0U, 0xbde902c3bdcf9a05U,
  0xbd5ca1f6bd1a4b9eU, 0xbbe233633e0cdb6aU, 0xbe8346923ec9a3f2U, 0x3d98898bbf01c619U,
  0x3e85a4eb3ca3d120U, 0x3e1011113e84cf94U, 0x3e91b10ebe97f5e4U, 0xbe73b88c3e4d55c1U,
  0xbdfb56de3e00f11bU, 0xbe210ae2be6de1e1U, 0xbe9d7c103ea52351U, 0xbeda4eb9be71d621U,
  0xbe2d36da3e1a91eeU, 0xbec0b20a3ccc3d07U, 0x3ed236393d996aecU, 0xbe70c7c7be8b2206U,
  0x3b1def74be502104U, 0x3f08dfcdbe35a06bU, 0xbe656fd7be042f0eU, 0xbe1a81c33efda6adU,
  0x3ccceb1ebde57406U, 0xbed1bafebe752198U, 0xbeee623c3f0484c7U, 0xbe4244dc3dae8e8dU,
  0x3ebb7b38bead8361U, 0x3e5ef84b3d1413a0U, 0x3e638ccabe9a2df8U, 0x3f376eac3e23c0b1U,
  0x3d4af6d43d87a100U, 0xbe94a26f3e7d52b4U, 0x3dcfe1f4bdd95de8U, 0x3e5561513d8d1e2bU,
  0x3e91bef63ca14676U, 0xbe27609fbe07a17fU, 0xbe4ca1b73de53ce7U, 0x3d59eb71bd9e7ff0U,
  0x3c03d144bd8e065fU, 0x3e0831be3e480df6U, 0x3db92e90be30f55bU, 0x3ce39e303dbe892fU,
  0x3ec19c923c13ffceU, 0x3df18b9abea7a43fU, 0xbe675236bd4d669bU, 0x3e31c897bcc737ecU,
  0x3da8f577bd67e6e7U, 0x3ed39ccd3dadf8d3U, 0xbea00e34bdf39018U, 0xbd1007083d3ef373U,
  0xbe175b9ebc7b4bb3U, 0xbcb1e347be4f3b64U, 0x3dc3ad3dbe7b7afcU, 0x3cdef22f3d4bb490U,
  0x3da95ca4bcd4150eU, 0x3d60c4af3d089339U, 0x3d73d1823d279850U, 0x3d242b15bdd95d30U,
  0xbf1b7495be07768cU, 0x3ce1f784bd87f8c9U, 0x3bb15da53de04e4aU, 0xbe996068becac492U,
  0x3e661b713dce16d5U, 0xbda0bfd13d94e067U, 0x3db508e23e88ac60U, 0x3d1b17fdbd8120e4U,
  0x3cb9bbc63d571ad5U, 0xbcb96bdebb21ea69U, 0xbd7c15633d31c42dU, 0xbee278373d488dd7U,
  0xbd36340d3ed6acb7U, 0x3d7f27c8bd77281aU, 0x3e808974bd6c388dU, 0x3d31526dbda9a0b2U,
  0xbce41bc1bd8fdb0aU, 0xbeae23c5be9253ddU, 0x3ef6da6b3a3ff4aaU, 0xbd992674bde7d459U,
  0xbde1c721baa1f4deU, 0x3d86eb2b3ce92ed5U, 0xbef5f6b7bae11a3aU, 0xbdcc50ca3eae5d63U,
  0x3cae2b48bd2273ddU, 0x3dc127ecbd60b138U, 0xbd023723bcf331dcU, 0x3d7350363c328ae8U,
  0x3d9e859a3d37bb41U, 0xbd06d23abde50ccfU, 0x3e79c7d03dbbeb59U, 0xbe0e72143db0cc5dU,
  0xbe9729f8be04817eU, 0xbc828ff0b950f3edU, 0x3e490bafbcfdd26bU, 0x3e345a853d1d52d5U,
  0x3c39eca4bab4384fU, 0xbd77f313bd17043eU, 0x3dc2b3c03cf0a695U, 0xbd0d7b11bd830ce7U,
  0xbdb5d372bd91cde6U, 0x3d0fd7e8bdc2a6e0U, 0xbd8236d4bd827cf3U, 0xbdeeec21bf43891aU,
  0xbe36ed8b3e209c0dU, 0xbdc7c7943e261026U, 0xbd90da73bdc28817U, 0x3d62f7043d063a65U,
  0x3e9f3071bb3d6aa7U, 0x3e4cd2febf197ae4U, 0xbed3bed1be7c42a2U, 0x3e030e30bd560e2bU,
  0x3db3020e3d1072b8U, 0x3e8ae69f3d373242U, 0xbe67216fbe679c48U, 0x3db5d2f63e091aefU,
  0x3c574faa3dd2a5a9U, 0xbd20a388be3dddcbU, 0xbd3418efbe34b4fdU, 0x3d8cd89c3cd54fb5U,
  0xbe0cb6fd3d327cedU, 0x3d8f20063d9e0354U, 0x3cb58bedbea5624aU, 0xbc61c640bd333cc1U,
  0xbece8563bdeb0e3aU, 0xbcf56ba53ca66322U, 0xbe354c5cbcf7b89fU, 0xbeb62558be52f0d2U,
  0x3ee0943abe02628bU, 0x3cb71f733e5092cbU, 0x3d6669fd3ee2ae63U, 0x3dd6c0753bb5fc6fU,
  0xbd5825cebda335f4U, 0xbcd3bc47be03f337U, 0x39e64c753d4e7f84U, 0xbeddd4a43df18f32U,
  0xbbad12603f28a9cfU, 0x3e4b31313e433d00U, 0x3d8539e73d0661f5U, 0xbd78177c3e376a53U,
  0xbe27719a3d37ddbfU, 0xbf0781adbf0bbe7dU, 0x3eda28773efdd902U, 0xbe62d600bc06ba29U,
  0xbe7181463d4e974eU, 0x3e491626bd38cdfcU, 0xbefc8de9bd804ee7U, 0xbe40f6323e54085bU,
  0xbd46d66bbe364a33U, 0x3e9b7a4bbdcec7f0U, 0x3d744dc63e2d81a2U, 0xbd8809d73e78b92dU,
  0xbc0d1e763d95ee19U, 0xbe15e5f2bee592c6U, 0x3d4a660e3dc3f8f1U, 0xbdadd5c93e38ba71U,
  0xbe6141e83cbc34c7U, 0x3e773ca83e02630cU, 0x3e27ef8f3dc602f5U, 0x3ea88681be51af97U,
  0xbd2f09df3d4dac33U, 0xbe433d36bd7305dcU, 0x3d2406643bb7f41eU, 0x3d47288a3da5179eU,
  0xbe2a496ebe3c1382U, 0xbe289f553e31f4d4U, 0xbe3dd99ebd8e14ddU, 0x3e500338bf47a8b9U,
  0xbccdf816be9dcc7cU, 0xbed4bc16bee392f2U, 0xbd28d669bebe1fe9U, 0xbe9b938abea7a427U,
  0x3e7ccdf7bec94b81U, 0xbf1b84be3e846ff0U, 0x3f05be3c3f10468fU, 0x3ee3b5163ef443ffU,
  0x3d38ad24bef59cfcU, 0xbe8e0d04becf5aa2U, 0x3edfda28bec5ffbdU, 0x3e155a2ebf2ac311U,
  0xbe92a0b2beb9b767U, 0x3ea2bf563ed944d6U, 0x3efb85373ef58ff2U, 0xbecdc0e53ef479f6U,
  0x3ec25b2f3eed82f5U, 0x3e5b258bbf041be5U, 0xbdec59523f84f72dU, 0xbe89648bbe0e9786U,
  0x3e544eda3ee5dfb4U, 0xbe5432f53dd803e1U, 0x3d3ff5c33eac50f8U, 0xbe4f4ad73e5355d5U,
  0xbec567f4bf0205deU, 0xbefb5f473efbe364U, 0x3d12d905be5f13c0U, 0xbdd0e2933eed417aU,
  0xbd7de97cbea29b2dU, 0x3e9ca24d3f083f67U, 0xbe70e2cb3ec06ef9U, 0x3e733f73bd90c5c1U,
  0xbf0a7913be616be9U, 0xbf0b8bc23ef06923U, 0xbed874c83e1afcecU, 0xbeb9c0e4be2795ccU,
  0x3ed2fe843e0387d4U, 0x3ec60c1cbeb702c8U, 0xbe68a0093f020007U, 0xbf09d324becc4175U,
  0x3e954edcbe9581f9U, 0x3e79948b3edd8e57U, 0x3e0d8f27bef8bdeeU, 0x3f27eebabea4952dU,
  0x3e2709c03f030fa6U, 0x3f0738b03ea983f8U, 0x3e818d09befbba71U, 0x3e6681153c1d28e1U,
  0xbee4832fbec5f0b1U, 0x3eae9dfa3f1651f8U, 0xbebeb3d33c44f2a6U, 0x3e6f3d61bef79d90U,
  0x3ec40c233f0a964bU, 0xbec745efbc69dcf1U, 0x3e9449b73e734937U, 0xbf04fda73e7462ffU,
  0x3d9ffe3abeb20ef3U, 0xbf17126bbed6d840U, 0xbee8fce03d1e92b1U, 0x3eb3a4773ee56244U,
  0x3de1bc253eb57136U, 0x3f02d028bf04491cU, 0xbea25ca13f15f108U, 0xbebf7e6d3e5fc384U,
  0x3e1192d1be019403U, 0xbdd602293ced53ffU, 0x3db0702c3dac52beU, 0x3d6c4f953e0f51bbU,
  0x3f4db32f3e281019U, 0xbd7be27bbe908a3dU, 0xbe8b1dc13d013b42U, 0xbe5a53b0be1a9e95U,
  0xbe11b4dabd467727U, 0x3e0811d03d438da5U, 0xbe8ec01d3e39741eU, 0xbdd972bb3e9496f7U,
  0xbe57e3593dcca5b1U, 0xbdead3dcbe1062d8U, 0xbc573b66be3e3c14U, 0xbe6b3f6dbe13801eU,
  0xbd0e6769bd97f4d1U, 0xbdf000003bf3ff07U, 0x3d5bfa0bbe2386a3U, 0x3e244ab73d9d0a9bU,
  0xbe1a6c7fbdc4e1c3U, 0xbde7d3b4bde2d7b5U, 0x3ea9a403be8d6868U, 0xbee02ff9bd4550b3U,
  0x3e1a0625bc909ed4U, 0x3d43b1f43f33a5b5U, 0x3e2b5b943e945a46U, 0x3e33273e3cb8a664U,
  0x3e108b703dd10db0U, 0xbc8e9852be70e595U, 0x3e8cf2853eb3ef4bU, 0xbe04b5b63ee3f7e4U,
  0xbe06ed623ea6b660U, 0x3dd70eaf3d1c1f5eU, 0xbe1c99e53d2065a2U, 0x3e5c897ebc830b1dU,
  0xbe36b7b1be005cb8U, 0xbe886c5bbe1512a1U, 0x3dfae7633e4cac57U, 0x3e746f8d3e03368fU,
  0xbd968a9dbe97383fU, 0x3e81c0c8bdc4c42fU, 0xbec7b279be676f50U, 0xbc03136c3ce02e7cU,
  0xbdeb87f73d1430c4U, 0xbcd05260bd976540U, 0xbd3771df3dbe4d58U, 0xbd1122adbef39ccfU,
  0xbdb9e5093dcce9abU, 0x3e8214e3bd851f6dU, 0x3ead5aec3dc8b89eU, 0x3e2c2ce73eb8a713U,
  0xbe5e8cfcbd492806U, 0x3db0b80d3d8ff954U, 0xbe3127153d421e87U, 0x3e49dc1fbeb7fdbcU,
  0xbd0fb7fabec4a548U, 0x3dc1e595bc31a1caU, 0x3e12a05f3d94079aU, 0xbe87af7fbe1e9517U,
  0xbe13dd96be3503d7U, 0x3dc7c9d93db375d3U, 0x3e3826babde0f8e3U, 0x3e80a197be50265aU,
  0xbb98816fbe71bf78U, 0xbe0732abbe2e1cfcU, 0xbce564a8be74d665U, 0xbdbf5b9bbe887ca3U,
  0x3ea2cb0ebe11bd5aU, 0xbed4c5b43db38213U, 0x3d5cc7603e751433U, 0x3ec40eb23e3c1bd9U,
  0x3e125aedbeb54567U, 0xbe4de6a1be8195e4U, 0x3e110891be853e12U, 0x3e2d4fe5be9e84b5U,
  0xbd838bb3bdbc6c33U, 0x3dfde72f3e7035e6U, 0x3bafe59b3e8290feU, 0xbec63a153e80cb0dU,
  0x3e56687d3e3c4b8cU, 0x3e14af2bbe96033eU, 0xbb60ab9c3e84b663U, 0xbe14f73dbc898837U,
  0xbe3cca393d8d276aU, 0x3e0befec3d876507U, 0xbde75b263d9dc0b2U, 0xbe919eca3cd4f2e5U,
  0xbe4fa1fcbe22af70U, 0xbe1fa47c3ed6407fU, 0xbccfce303d4a2a11U, 0xbe15d9833ea381f6U,
  0xbe2b0141bd3c35e5U, 0x3e380a283ded92e3U, 0xbd07fe7d3a1c03b7U, 0xbd336827bdbeab65U,
  0xbe61e9b13e8c4898U, 0xbe59d5403f16fc84U, 0xbce08bc93d6b084aU, 0xbe22f8fabe52c9e3U,
  0x3e4830413e1c0944U, 0x3d6c1ebabf17041bU, 0xbda44f3c3f14d308U, 0xbe6a19aabe6a68ccU,
  0x3df46065bdc26c8dU, 0xbd0a16133dd47e1eU, 0xbdf829f3bd6dc34dU, 0x3ebe51a2bba69fd8U,
  0x3d89ae1e3f12785cU, 0x3ee52b993e0332c4U, 0x3d7ce463be5186c7U, 0x3d0b020bbe4dfa64U,
  0xbdaeaa2cbdea6e5eU, 0x3dd8c3493f008b96U, 0xbe6016c5be62f086U, 0x3dd10d07be8d418aU,
  0x3e30b7453e9569c7U, 0xbe497486be1c3af3U, 0x3e2c26343dd4a9bfU, 0xbde945cc3e1cc5bfU,
  0x3d8862febf01d7c8U, 0xbe85bd6bbe0c892cU, 0xbdac0c28ba7e4db2U, 0x3e1989473e8c5680U,
  0xbe5b5e573ea81788U, 0x3e58519fbea21ca9U, 0xbd9515833e1b30a8U, 0xbeaec27bbe86ec46U,
  0x3d782fa3bcef49e6U, 0x3cce20633e0b69ffU, 0x3cff788dbdfd5ae6U, 0xbd096edcbd0c496eU,
  0x3f025e37bd56b864U, 0x3e515516be165bbcU, 0xbe2c97ca3e2f46d3U, 0x3db88af5be29548dU,
  0xbd87be49be84bc23U, 0x3dfec79a3d717f14U, 0xbdbdcacfbe132a44U, 0x3d5fa2a03d97879cU,
  0xbeb07eef3c2a4e87U, 0xbdd149a2bdea5c4bU, 0x3e0e5f87be0d09e7U, 0xbebbd821be4cdcfbU,
  0x3ddb85debe11ae65U, 0xbd87e7be3da34c20U, 0x3dbe55423cfdc070U, 0xbdb9e15a3d84cbc6U,
  0xbe9c3e383d53fe83U, 0xbdaac0cc3c1dcc5fU, 0x3ce28cb3bd16921aU, 0xbed73b1dbe15bc2dU,
  0x3dacb7fc3e28d00eU, 0xbd7eea583ef948a0U, 0x3d3b9ada3e2c9510U, 0x3cc642e1bc93d24aU,
  0xbcd8ad3ebc901008U, 0xbd3e0168bdefd787U, 0xbc92054f3ebe7e30U, 0xbe9a96c43e376018U,
  0xbe08a96b3e5679f5U, 0x3dcc651b3d888de9U, 0xbca67db0b8e3e86bU, 0xbdf7a1a1bb928e95U,
  0xbcae28fb3b73021bU, 0xbe16ece2bf005f59U, 0x3da3ab303f0e243eU, 0xbe2f2ebfbda5aaa5U,
  0x3d373854bdec5a90U, 0x3e7b194c3d09b15fU, 0xbecf9e99be3014e3U, 0xbd23b8a4bda0f588U,
  0xbdf3beffbde88f04U, 0x3ec4bfefbddc311dU, 0xbd481165bd3b0c35U, 0x3d6c8f30bd8d7f26U,
  0xbd0466eb3dc1a96dU, 0xbd0a52cd39ce0cb0U, 0x3e72222fbd73db33U, 0xbd9376d03e6dda29U,
  0xbd0c824fbcc7e366U, 0xbc1f66c23cef99dfU, 0x3dad3bedbc12df18U, 0x3f1ae983be2d0c0eU,
  0xbd3adbd8beec15a4U, 0xbe04c0413e0c5eefU, 0x3e1d89143c05d2f5U, 0x3b4c8aa0bd9d8cd8U,
  0xbe42acf5bd93cc47U, 0x3e9f5bb1bd1e2ed3U, 0x3abca440bdc96adcU, 0x3e370937be9e5506U,
  0xbb3b1e3ebd3f5425U, 0x3df6523b3e74cf64U, 0x3c398225bda43cc9U, 0x3e2ad4353d83d091U,
  0x3f4588293e277d8aU, 0x3daea14dbe9f43e7U, 0xbe6a5cf8bc9d5af7U, 0x3d2881d6bde8d01aU,
  0x3cbe4176bdbddba4U, 0x3e7f0e653d54374aU, 0xbeb6dad7bdac0600U, 0x3dada9603df79fedU,
  0x3df592ab3e4155d1U, 0xbe2f2f23be2530d6U, 0xbd8fc952be87e957U, 0x3d5d5ee5be1049d7U,
  0xbd8c42dabd63e13aU, 0xbda55e943d111ad9U, 0x3c1c0499be4d4938U, 0x3e3cef463d7a05fcU,
  0xbef7e0acbe27d11eU, 0x3e22d812be01e664U, 0xbd73ab94be5753fcU, 0xbebb8dc4be234b63U,
  0x3e3094003dedec70U, 0x3d5bf0b83e7b2711U, 0x3e547f263eb65220U, 0x3d116678bdb754f4U,
  0x3e4e7c27bc2285d1U, 0xbd98b713bd9c9364U, 0x3d1b93f4bdb53916U, 0xbeb4dd333c6a815bU,
  0xbd8f1ede3f067efcU, 0x3db1d58dbe2d1a0eU, 0x3e41de13bd973146U, 0x3d96a6003d814579U,
  0xbd3205b9bd5857fbU, 0xbe88c142bee3f79cU, 0x3ebec73e3e7e3147U, 0x3bb61d4e3d3e5f77U,
  0xbe3595a7bb8d2b35U, 0x3a099f463b54b43bU, 0xbec5ff813c325d0bU, 0xbd789b503d969a15U,
  0xbe187543be1c8848U, 0x3e81cc00bd910ac2U, 0xbd82fd003e45a238U, 0xbc59fee3bb5843ffU,
  0xbd77490f3e80df8bU, 0xbbbc217dbe0b8ef6U, 0x3ead09053e19c180U, 0xbc4f71773e204aabU,
  0xbe549f38be68e16cU, 0x3dbbd5cb3deb2ca2U, 0x3d73dd03bb1d85a5U, 0x3c5990aebe61e80cU,
  0xbd66d5b2bdfe30a7U, 0x3d5359113e3644faU, 0x3d2b29733dfacf55U, 0xbe000be9be37bb7fU,
  0xbe1efa15be8a60c7U, 0x3de39b66bd8a5521U, 0x3d7a4c66bdcee8ffU, 0x3d57f56fbf10cfddU,
  0x3d974ff93c7fd984U, 0x3dbe6bd23e1be25bU, 0x3d20cf5cbe0dff22U, 0x3d85c6f0bd698b66U,
  0x3edffb89bcdac942U, 0x3e3d632abebb48aeU, 0xbe81ee2e3e0a749eU, 0x3e147cfebdbdb795U,
  0x3cae8c3fbe59b222U, 0x3e7f79ae3d7f8116U, 0xbdda7650bdb3d982U, 0xbc704ba33ce18c28U,
  0xbe6462163ded41a8U, 0xbd2eee59bdf4c80fU, 0xbc4d4147be03c9caU, 0xbe8b86f8bdc9188eU,
  0xbd0a2ad5bdc2f2fcU, 0xbd7294743d9e0caeU, 0x3d8efd6cbe10b2faU, 0xbd089709bca1f9eaU,
  0xbebb5009be118014U, 0xbdc00c883cba9a8aU, 0xbde87151bd08650aU, 0xbed15a6ebdf0caf5U,
  0x3dadda083d42aca3U, 0x3d262c273ed27fd5U, 0xbc3aecc23e6b9dcdU, 0xbad16ae33b603edbU,
  0xbc784459bd12ea15U, 0xbbc5ec783bdf3fbeU, 0xbd21070fbcd524a8U, 0xbe90d5b73dc5733cU,
  0xbd0baf483f0a9f94U, 0x3c1067a43e01af10U, 0x3e02611f3c406907U, 0xbdca672b3e3160caU,
  0xbddf8e3a3dda56f9U, 0xbe17c5aabf1401f1U, 0x3e5980a23ea98dbdU, 0xbd9fbed7bdcd53c9U,
  0xbb3ec3a93d781e99U, 0x3dc104b6bcfd36ffU, 0xbe610a8fbe01dc08U, 0xbe019fc83c91276aU,
  0xbb97e8c6be1ecb3fU, 0x3e47895abc894e79U, 0xbe0a4d183cc4a745U, 0x3d5211cd3c241c30U,
  0x3db44d4b3db566e8U, 0x3d8bf1373ca97b81U, 0x3e0c6b0ebcf0982bU, 0xbe0376ce3d6ae797U,
  0xbe1938e6be1701fdU, 0xbdfbd51ebc78ef52U, 0x3e33753ebdad60fdU, 0x3ef7e3a0be4b7359U,
  0x3b2be756be8be6bfU, 0xbe1cc8983bf0411aU, 0x3e047745bc419efcU, 0x3d202ca03c82620bU,
  0xbdb6d19a3d1803dbU, 0x3e9b09af3daabf31U, 0xbde61506be0ef132U, 0x3d8a0854bf05cadcU,
  0x3e081b4bbda105fcU, 0xbf42cd28bef2dd95U, 0xbe98132f3dd53ad5U, 0xbf1d92bdbeddd68cU,
  0xbea4697ebeb4768dU, 0xbf3ff55fbd83cd98U, 0x3df327e23ef5f0dcU, 0x3ef934ee3f39b16fU,
  0xbe1f7c64bf7397bcU, 0x3d33c82bbebc4ce1U, 0x3cd14f9ebe1a0a9aU, 0x3e106a8dbed440feU,
  0xbf135a16bf2c27fbU, 0x3f4e0d1e3f084c3aU, 0x3f6478b73d4f6effU, 0xbfc095013f171c9fU,
  0x3f8105c43f0508edU, 0x3e91f6a0bf1d8ed6U, 0xbe53550c3f517a8fU, 0xbe9ff9cbbf09a528U,
  0xbe2392473bdeeaabU, 0xbf6ad8733e4f32cfU, 0x3f0aefe53ee5f6ecU, 0x3e4eb7edbdc13e64U,
  0xbec64838bf8889b2U, 0xbf46398a3daf9460U, 0xbedecf633e4d5371U, 0x3cc44f1a3f81cbb3U,
  0xbebf2dcdbf13bd2fU, 0x3f7fcfc13e952ec2U, 0xbf3857c23f5f0fbdU, 0xbe14dc1dbe47f803U,
  0xbf96a05b3e8c2de9U, 0xbe6371f63e803034U, 0xbf3aaf423f566a8fU, 0xbef9cce3bf96ff95U,
  0x3f011b433ea1e6f4U, 0x3d26c2763d6aa61dU, 0x3dd8add1be0436edU, 0xbeac966bbe6c3bc6U,
  0x3f11e35bbf45444eU, 0x3f8e1dd23f0ae659U, 0xbe53330dbf3755d2U, 0x3f63d119bdc2157dU,
  0x3f0d7ad13f2a76dbU, 0xbe2e22e83ec62e20U, 0x3f2f6229bf38d39bU, 0x3f5b33023de40d09U,
  0xbf23bcc9be95cbefU, 0x3fa0ea7b3e005656U, 0x3bb4dae8bde05137U, 0x3f4d35ccbe70ce78U,
  0xbdc970883f337645U, 0xbee47029be96bf0bU, 0x3e592b3f3f43b954U, 0x3f754bfd3e3050dcU,
  0xbe9b9b46bd46d5d8U, 0xbeaeb6bdbf6c4eaaU, 0xbf2d14783da38881U, 0x3eca2c213edd362cU,
  0x3e333f9b3f0f6d16U, 0x3e9b504fbf76aff1U, 0xbe803aae3f339ea8U, 0xbf351141be89fcb2U,
  0x3d639a043c12d99dU, 0xbd0b2d0ebc2b0efbU, 0x3ca0d5d6be81b452U, 0xbe3a2aefbe0eddb8U,
  0x3f136cb3be524905U, 0x3e3d1d7abe4ece0dU, 0xbe99ad35bdc4d610U, 0x3e7f70423d841148U,
  0xbc12c17dbd99ea7cU, 0x3dda609cbc7b80f2U, 0xbd89c2f9be33cb98U, 0x3db2a8cebe875258U,
  0xbeaf3ed3bdadfa33U, 0xbd3d57e0bda06754U, 0x3e4374683d034bddU, 0xbd82cbc63da354e2U,
  0x3cc3cc463e16f460U, 0xbc74c1bd3e06ea59U, 0x3bbf9b8dbbaa48c3U, 0xbe13302f3c3e6a7fU,
  0xbeb08ea83e48e914U, 0xbe40afb33d7aff58U, 0x3d8117e63e53d862U, 0xbf098ae2be10f367U,
  0x3d5318d1be1e4ec2U, 0xbe0299123e97f3b7U, 0xbc3858333e1324a6U, 0x3d86a7013d9b1bfbU,
  0x3d288015bd8a4d6dU, 0x3dfb58abbc77e91cU, 0x3d2d34cd3ea0624eU, 0xbe8e80393e0f85bfU,
  0xbe2c264c3f088f4eU, 0x3d2789a73e09ee01U, 0xbe12953e3d0e3225U, 0xbd9c801b3dd5cc73U,
  0x3e348af93ddf6ecfU, 0xbe1ccc80bf05d0ecU, 0x3e0016223e91b39bU, 0xbe0426f2be2eb504U,
  0xbccba579bd2eb776U, 0x3e799bc9bde2fe89U, 0xbeccb866be0bb032U, 0x3dafaff73dfe1ed0U,
  0x3e40da51bcf42801U, 0x3e62aa413d09a1f8U, 0x3d65a133be4ce2f1U, 0x3e707eb6bce24ca4U,
  0xbdbb338dbe274be4U, 0x3dfb3309be07bde1U, 0xbdadaf173e6d06f2U, 0xbe03171a3d013f52U,
  0x3d3925653cbafb33U, 0x3d6ac0483c64fee8U, 0x3da4eb163b277b36U, 0x3e73bb1e3c4f6b8dU,
  0xba257f8cbe8a818dU, 0xbe3d6d80be572d5aU, 0xbcc20bc53d0968c1U, 0x3cb880de3d0a1a14U,
  0xbe42c76b3d75808eU, 0x3d2a54ffbd1c5622U, 0xbe390370bd12e4e6U, 0x3ea0f871bf170458U,
  0xbc4e3f60bd785df9U, 0x3dafd7733e19250aU, 0x3a3785b6be354cb7U, 0xbde5f7e13db6053bU,
  0x3eeedff8bde66515U, 0x3eedf7b3bee10a74U, 0xbee25df2becda0a0U, 0x3e09c9ee3cd793ecU,
  0xbdbfa65ebc8fbd75U, 0x3e68c65f3e62a02aU, 0xbe5b047ebdf6ec3dU, 0xbcc72f70bd2d8919U,
  0xbf23364dbdc47f95U, 0xbdb3f456be19eed2U, 0x3d6812d8be6a8fa0U, 0xbd38eb6a3d800b0aU,
  0x3d564e19bc3f9280U, 0xbdbcb7f53e402c61U, 0xbd88e79e3b9653eeU, 0x3d5a9ecebcc133f1U,
  0xbec26232be23ade5U, 0xbe46dc51bd6ccee8U, 0x3b850cc73c448baeU, 0xbeeec1febe10a217U,
  0x3e93a3493cb7702aU, 0xb97ab6c53e2fc24eU, 0x3dcd44f03e82c42bU, 0x3df14e7e3daaef3bU,
  0xbd0db8ea3d9af023U, 0x3dbd3e0ebe521954U, 0x3e1be5aa3ecef3c3U, 0xbea6c0073e0c40c6U,
  0x3c3eeec03f1cee35U, 0x3db0094e3e116986U, 0x3d2427cc3bd1f491U, 0xbde8e4863f39fb4dU,
  0x3e4691c23b87e34fU, 0xbe9d3247bee70181U, 0x3e3e584b3e8d7239U, 0xbdfd0347bc67ad37U,
  0xbde10c9cbe31a8f1U, 0x3e2bb70e3c359fd3U, 0xbedcaaa13d82ccffU, 0xbda690ab3d690722U,
  0x3ca805d3be3c4585U, 0x3ddcfbe93e0a7d07U, 0xbb8334cabdc68f27U, 0x3b4d40803d1a558bU,
  0x3d063704bd904632U, 0x3d04c347bf1c24d1U, 0x3daa15433ee7b50fU, 0xbcde79d33ec35e84U,
  0xbe15a3cf3db1147aU, 0x3e121b32bd4fa2beU, 0x3dc8a1ed3ccf3725U, 0x3f87b9e5bd9262a3U,
  0xbd80b4c2bd11c77eU, 0xbdc2da56bd114b83U, 0x3cc97bde3c2fb4e0U, 0xbbf03cd8be04a5aeU,
  0xbe00f59abd372be2U, 0xbd1df2ae3da65d5dU, 0xbc69871dbd78eab8U, 0x3ebb7c9cbf35e24eU,
  0xbdb8894fbe2daf22U, 0xbeb7ea47be395759U, 0x3b33bbd1bdfc2807U, 0xbdee24a8be112766U,
  0x3e7e0d02be44db7dU, 0xbeb5c5e5bdb2b978U, 0xbda7bacc3e4e8be2U, 0x3e39d50e3e64593fU,
  0x3de269b1be583e2fU, 0x3d5cf8f1bea53357U, 0x3d2f6ae9be58d616U, 0x3e4bf7cebe3ece1fU,
  0xbb79add8bdee7939U, 0x3d9677573d76a6d8U, 0x3e0932963e152bc7U, 0xbdcfc4743dc5014eU,
  0x3e3c9f1a3dc8d75cU, 0x3da715f7be7ee6a9U, 0xbd5ed3643e4dcaacU, 0xbacee62dbdb86042U,
  0xbd3d50263d97503aU, 0x3da6b0c93e2bf042U, 0x3d526c2bbd228f6cU, 0xbdb907f1bdbdb8abU,
  0xbd8491933c577fcaU, 0xbdf0e1323e1be30fU, 0xbd2275673e3578caU, 0xbdc0111c3e410a93U,
  0xbe17a433be68830dU, 0x3db6d3063d9ec423U, 0xbe0fce443d72c0c0U, 0x3ba42a69be6b2234U,
  0xbd5f51cd3e40f208U, 0xbe397c943e51ecc0U, 0xbd1437873e276109U, 0xbd73afb1bdfc9d9dU,
  0x3e2257c43d88c239U, 0xbd2338b6be531603U, 0x3d7425483e5ffec6U, 0xbe649e14bd6ae1e3U,
  0x3df86855bea87fceU, 0xbd8cca0c3db15008U, 0xbdfe783bbd2a389cU, 0x3ec8fa9d3dfee187U,
  0x3dd9cebf3ed02b52U, 0x3e8e51063e6de12dU, 0x3e33c948be0db828U, 0x3da1bdbb3e3e50fcU,
  0xbe612944bde8b45fU, 0x3e15e4143efc7d58U, 0xba2ffe2ebdccf768U, 0x3e5255fdbdd7e144U,
  0x3db529013e1b1156U, 0xbe2fb961be3873a4U, 0x3e1216303e3dc17dU, 0xbd273ea53d4395b2U,
  0x3d0b05343b272adfU, 0xbe2c14b2bdd4ec1cU, 0xbdf6e0b4bdd955cdU, 0x3d8be5033e5f539fU,
  0xbe24ac7c3e8124abU, 0x3ea2b5f9be9c25a2U, 0xbd393e583e63b765U, 0xbe8a887cbe2d3a0cU,
  0x3cc33f003de72082U, 0xbdb9b9003e076726U, 0xbc9c871c3e061957U, 0x3d836daa3d72b8a5U,
  0x3e9740693d92d22eU, 0x3d87e71bbece7c70U, 0xbe4e41bebd2d52b4U, 0x3c32b432bcfbb4fcU,
  0xbaec02d3bd3e386fU, 0x3d40abd73e080238U, 0xbe05eb4cbdac49f3U, 0xbdf98f713df16336U,
  0xbe922df63e0dbb79U, 0xbd4deb73bd687843U, 0xbbcda327bdc8b870U, 0xbe224611be1db6d6U,
  0xbd16fd6cbdb0f1b8U, 0xbe1f91f2bd557620U, 0x3d799e7bbe45c678U, 0xbc0985743dd94786U,
  0xbe8fba55be1edd04U, 0xbb9296e7bdd50b01U, 0x3e45d1d9bda3e9bdU, 0xbecd38ebbde5c018U,
  0x3da8bae9bd637173U, 0x3c9f62353ef186ecU, 0xbd32f6a63ea3dae9U, 0x3d4bca90bbc360d6U,
  0x3e0e613f3dcb168aU, 0xbd79668cbe5c6728U, 0x3d5c47b13e85c749U, 0xbe7d05493e5ed102U,
  0xbc18844a3ec0de84U, 0x3d3ebcf2bc82b77aU, 0xbd261bbd3b0eae99U, 0x3d94a7c93cec7635U,
  0xbc454682bdab4abbU, 0xbe3ec250bf459c8cU, 0x3e5ba4213f056d7fU, 0xbc311d213e7e4dccU,
  0xbd7cf910bcc2becdU, 0x3e42284fbdf27fceU, 0xbec7681cbe046798U, 0x3de5ad6a3e556908U,
  0xbddf6c08bd92a532U, 0x3ecd4f38be21008aU, 0xbdcf80553d9f1ff1U, 0x3bbbec1abe9323efU,
  0x3c9b3b2d3dcf441eU, 0x3cd2a5633d989e06U, 0x3e68ee0d3dafbe4aU, 0xbd4fe9933e1703f6U,
  0xbdd66229bc48f5c9U, 0xbc9fd7ad3de52cbaU, 0x3e17ac613d53edd1U, 0x3f15f45ebe876bfaU,
  0xbd2f315ebe84ab8aU, 0x3d5b1e173d8b57e6U, 0x3cd80cf03db89622U, 0xbb33faf3bdd940acU,
  0xbe43f9acbe26e593U, 0x3e02b7973dab2ea0U, 0x3db3cc95bdc63bf6U, 0x3e2e7f30bee010daU,
  0xbd8ea53e3e9ad07aU, 0x3e8b395f3e0484c4U, 0x3d6c6cd8bec2c64bU, 0xbdb76ef13e4df23aU,
  0x3ecf130abdfa0f83U, 0x3e976b64bebd1f4bU, 0xbdd93730bddc7096U, 0x3e57e77fbe3efff2U,
  0x3c811da3bcef4754U, 0xbd0c6c723e818a7aU, 0xba11c6d2be72a3e1U, 0x3d9c470fbe49ec30U,
  0xbefbfc65bc31f2c2U, 0xbd4a45dabc583945U, 0x3e0aec8cbd4e4ee8U, 0xbc87afe33dc43b57U,
  0x3bf7b9023c944c95U, 0x3ceaf0123e8b15b3U, 0xbd8a2ced3e4992e7U, 0xbc70c2853d2d0132U,
  0xbe2a221b3de3d0a4U, 0xbdaa1c563e115486U, 0xbe6d1dfc3de78b8dU, 0xbea19de13d921812U,
  0x3e2d6d923e9ff27eU, 0xbe21f2203c93a762U, 0xbd94195abc5c806bU, 0xbd8c1dacbd0aeac2U,
  0xbe0893933cfc2392U, 0x3d1d53483de1c61fU, 0xbdabbe273e170967U, 0xbdf76bcdbdd900f7U,
  0x3e31a4593ed8be3cU, 0x3db66ba23e89d56bU, 0x3ea35534be528c53U, 0xbe1e87a63e98a586U,
  0x3d9a4f093dcfaa7fU, 0xbe313692bf2b23e3U, 0x3e3423193f00f776U, 0xbe202d3cbe2942faU,
  0xbe6d60823e7b6af5U, 0xbea99ae23d13f075U, 0xbd73a777bda68cfdU, 0xbe8ddb02be02ca7dU,
  0x3d8897fcbdd533fdU, 0x3ef461e4be438fc2U, 0xbe7239c9bd867544U, 0xbdaf71743e37f2e9U,
  0x3e064fc8be0b8b14U, 0xbe7e2b1dbec31aeeU, 0xbe5952063f09353aU, 0xbdf0197e3d924919U,
  0x3dcf28e4be9368eeU, 0x3e20aa11bd751dd9U, 0x3e059cbdbe1cef46U, 0x3f4f2719bd260708U,
  0x3b40557aba0f9ba8U, 0xbe6756803dd552daU, 0x3e716b54bd91cb0aU, 0x3da1b3bdbc81d1fdU,
  0x3bd9e3ed3c09746aU, 0xbe3c6f623cca31d9U, 0xbe3f09adbcefdd80U, 0x3dea6ea8bf0d54d3U,
  0xbe3713173ec267bbU, 0x3e918ad63ea9929aU, 0xbc2aa39abe455fa3U, 0xbe14cee13f166738U,
  0xbe9535bebcdd2e60U, 0x3f558aa7be236be8U, 0xbec8aea0bf2213d1U, 0x3e8881e1bdcfcc06U,
  0xbc0fbb8c3edcb469U, 0xbdff5d333f52889aU, 0x3e8a7666be70d2eaU, 0x3e1d33b0bec8d41dU,
  0xbfc40029bdedb2faU, 0xbdff2455be7d2192U, 0x3edfc9773e643907U, 0x3e27dc93be8fbbcfU,
  0xbe5506afbe21d5adU, 0x3bc18c4f3f40c40eU, 0xbce8220a3f08d54cU, 0xbc3e5e01bb8a1d6bU,
  0xbd8f3ded3ed4362fU, 0x3ef909463e1a594fU, 0xbe10c9c4bd76770cU, 0xbc78ac12bd39431aU,
  0x3eed54e43e4fb181U, 0x3dd2639ebe27bb0eU, 0xbddae0aebe1e52ccU, 0xbd48ee1abe18ffc2U,
  0xbe18f7023e943945U, 0xbd4308373e05031dU, 0xbe3650723ef99379U, 0xbd96d3b9befa90d6U,
  0x3eb45af0bc9eb134U, 0x3ebc45363e715c71U, 0x3f1e8489be865bafU, 0xbe1410743ec613ceU,
  0x3ca01a7a3e00bff8U, 0x3d1ffd59bd4548b2U, 0xbca178363e99871aU, 0xbf0d80ffbe042f74U,
  0xbef711643e8448daU, 0xbf06123fbdf61b2bU, 0x3e4891193ea08f6aU, 0xbf019322bcaefc97U,
  0xbe87fc0dbeb1a581U, 0x3e54da6ebea34936U, 0xbf0d3030be8d9a77U, 0x3dd56a5e3eb07e5eU,
  0x3ede11a2be6f8697U, 0xbf109213be3b45e1U, 0xbe8a3f173f943016U, 0xbe8085a43ef628bdU,
  0x3ceacefcbf19c53eU, 0x3e8ab7763e0e24afU, 0x3e9dfa0cbe8764c6U, 0x3f7c00f0be819275U,
  0x3c699bf1be71f116U, 0xbde21c473ed1775aU, 0x3e9387e2bdbbde04U, 0x3ebacb18be8db052U,
  0xbde6eb663d636f45U, 0xbee9086dbc023eb4U, 0xbe0505eabe2cedb4U, 0x3f0c340bbe34e873U,
  0xbdcaddc13d48e75dU, 0x3de7d31a3c8c0f90U, 0xbd3b25f6baca9ddcU, 0x3e15ab003dd3be2aU,
  0x3eeae83abca2789aU, 0x3e8d74d7be8140f3U, 0xbece3154be616f3bU, 0x3e05450fbd13c31aU,
  0x3dc1a1ec3e23e78fU, 0x3e8274853e6c217bU, 0xbe948ee6bd185572U, 0x3b669c023e1350b3U,
  0xbeb05b843d28b90cU, 0xbe122ca8bddbaaecU, 0x3d5d45dfbd88e278U, 0x3e25df70bd652ab2U,
  0xbcf048e4bd4129ccU, 0x3d4946823e4186ffU, 0x3be5e290be9b8b1bU, 0x3d1fb96a3e100b98U,
  0xbebab7afbcd4ffecU, 0xbccf1720bc9c2fbeU, 0x3d1c7964bd7ed4dfU, 0xbec92aa4bea37a06U,
  0x3e337d793e744427U, 0x3dbbe7a73e609fe8U, 0xbd1abfb33e5a9afbU, 0x3d9bd570bdba8b09U,
  0x3d8fa5453e33cfdfU, 0xbe2e5debbda18154U, 0x3dd700a33e003ee7U, 0xbeb21ccd3db55950U,
  0x3dc1715e3ee7bb3dU, 0x3e5615b8b992d02fU, 0x3da7107bbba9c6fcU, 0xbc783ae63eb8b2afU,
  0x3d618767bd1fc180U, 0xbe267488bf00149cU, 0x3e85e5843e6395e9U, 0x3d44fd953d4ac49eU,
  0xbdaf9a973d1172e0U, 0xbe203209bd10dc62U, 0xbeea83b43ce65fe4U, 0xbe4138ab3e0db4c4U,
  0xbd15b33bbe98f87aU, 0x3e119978bcd3bd40U, 0xbddb62233ddbb62dU, 0x3d46c6063dbe9af3U,
  0x3d78237d3e111090U, 0xbd8782a3be83aefcU, 0x3e18a26a3ea34886U, 0xbe358c963ea81748U,
  0xbddcf749bdf55d7fU, 0x3d65242f3d6c38fbU, 0x3d896de13d1f0e28U, 0x3f06f3a6be9575d9U,
  0xbd2ac273bcef4533U, 0x3bebcee13d9c71eaU, 0x3e252e333d2e63efU, 0xbc419324be7323bcU,
  0xbe3021d1bcef8c2fU, 0xbdd78fcf3e37c8f2U, 0xbdc1909fbe5a68e0U, 0x3ee99941bee6b1f3U,
  0x3d12b85d3e45387fU, 0x3e7aa1db3e4ea760U, 0x3cca6c9f3e1a03cbU, 0xbdb040073e59704cU,
  0x3e3198d8bd1a6edeU, 0x3e9bd08cbed1291dU, 0xbef08517bdffac62U, 0x3d1eeda5be26e7cfU,
  0x3c589030baa58b96U, 0x3e9c05973ee6a0e5U, 0xbeddaca1bc8f1500U, 0x3d37caadbe2cac5cU,
  0xbf3c3289bd9fb1abU, 0xbe48fd5ebd756b84U, 0x3d2ef219bea83d66U, 0xbdb470573e042055U,
  0x3d34c7a4bddabdafU, 0xbd98ae363edded90U, 0xbcbf676c3e1c8550U, 0x3d6a83df3e06240dU,
  0xbef44ca3be2157d2U, 0xbdb87183bcd8375aU, 0xbd91ad063d3947dcU, 0x3c3aab64bf0b3babU,
  0x3e82012c3e414170U, 0xbddaf4633db21890U, 0xbd63f4aa3ec25fd6U, 0x3d3301afbe8069cfU,
  0x3d3287623e179126U, 0x3df56ef5bdf386d2U, 0x3ce0ddce3d8c9bc4U, 0xbf0f38913dbd1a0fU,
  0x3e1449763f03517fU, 0x3de4e125bda7eeb2U, 0xbbc13251bd3f2155U, 0xbd85b4643e1057edU,
  0xbe002e4f3dc2462bU, 0xbd7a9669be5871e5U, 0x3ee8baa8be0a75faU, 0xbe1afa813d9b59d2U,
  0xbe6984493dfda343U, 0xbd552f6abe202e20U, 0xbeeae1b63d824efeU, 0xbe8869ee3eaaae18U,
  0x3c423f86be18e74aU, 0xbe01b078be14fc45U, 0xbe1b4ac9be975a86U, 0x3da9fbeabe16197fU,
  0x3e826580bd76508dU, 0xbe12d83abd531c4fU, 0x3ed7d2b43f239f48U, 0xbea08f5a3ee172fcU,
  0xbeb3becebe7a4ca7U, 0x3e30d1883d5ca32dU, 0xbc33712cbe16a4f4U, 0x3ef6d567be9040d8U,
  0xbbbc899dbf075d40U, 0x3d8eadcf3e1e6484U, 0x3e4cce403d48de11U, 0xbc89698cbec51ff6U,
  0xbdd0f4d83d43025eU, 0xbe29061e3d9a95bbU, 0x3cc7535bbe2a6fb1U, 0x3d20d228bf159ee8U,
  0xbd14dbdbbe3416ceU, 0xbe4e88023d1cd9bfU, 0x3d3acbe7bac18480U, 0xbdc7564e3dd0b17cU,
  0x3ef67804be148ecbU, 0x3eba1b0cbedb6cc5U, 0xbedf75e7bedc38ebU, 0x3e8a05d63d88ff2dU,
  0xb90db9233ddad317U, 0x3d89146a3e6a756aU, 0xbdc51c43be641bf4U, 0x3ca669c9bde63a91U,
  0xbf55d79dbdc91b4cU, 0xbd9b699bbd907df6U, 0x3d9801f63d89449fU, 0x3dd82bdcbd63bb23U,
  0x3e5bbb43bd2287c0U, 0xbd3b4a183e708624U, 0xbd018b79bce332b6U, 0xbd341f353dba920dU,
  0xbed49dbbbbfc713aU, 0x3da250503cce0d27U, 0xbdb7c2e33de65db4U, 0xbf29049bbdc166e1U,
  0x3e9baf24be8c4431U, 0xbdba3e3bbb6c40bcU, 0xbd44f75d3e200813U, 0x3d16497f3dabeaf3U,
  0xbdb5cbbf3d68735bU, 0x3d92d5fcbd2f1406U, 0xbcf0e5313e28daeeU, 0xbeb4f36dbe0ae67cU,
  0xbdff4b4a3eec8719U, 0x3e0ea2793edae764U, 0x3d5666bf3def458aU, 0xbe7ca7e93e1c6aa7U,
  0x3e30471a3e388561U, 0xbeaae43bbf3eb04bU, 0x3e9b96043f2d72cbU, 0xbe508d02bd6a4f97U,
  0xbe538f5bbe021c79U, 0x3e3918833e0bc103U, 0xbef9dde5bd0a7d4bU, 0x3dd21f163d52009fU,
  0xbd886807be561aafU, 0x3ed5907cbd772a04U, 0xbb26a0febe4f53e0U, 0x3dc2425ebcbaa2d6U,
  0x3db94203bda41d76U, 0xbccac88dbef0e4e1U, 0xbcad1ddc3ef89c6fU, 0x3dd2d12d3e8cb645U,
  0xbd72f2453d3b5facU, 0x3e56b90bbc834373U, 0x3e6cc2c33d2cf75cU, 0x3f5eb811be5d8e5fU,
  0x3d9bcded3c290c66U, 0xbe6ce385bd916682U, 0xbd3edd0cbdf53e6cU, 0x3df4cd5b3bce88b0U,
  0x3d09c1843db2058dU, 0xbe78ea37bdd11f8eU, 0xbd773992bad85407U, 0x3e76bc3ebf340ae4U,
  0xbcd1ba0cba7f4017U, 0x3d773cbd3b6b8d90U, 0xb8e28a6ebc91fdc7U, 0x3d49cafbbd862fbdU,
  0x3f4b4b91bc6f43d8U, 0x3e3360a5be12fb87U, 0xbe842d25be0c83ccU, 0x3e22fa143c22b793U,
  0xbcf93e0f3c396017U, 0x3e67c9cf3d048fbfU, 0xbdd69a84bc6790d1U, 0xbd0031743d3499cdU,
  0xbdbaf2223c9bc8b0U, 0xbe207c11be610080U, 0x3d76c5eabd0c64a7U, 0x3e2572a63d9098faU,
  0x3dd83debbd85a5fbU, 0xbd933f053e7e7b5bU, 0x3dabf393beac3423U, 0x3db1b8043b9100cdU,
  0xbec1f4b83da22116U, 0x3dce6a5cbb95fb7bU, 0xbd500a633d6815dcU, 0xbf053612be77f93aU,
  0x3db9c75dbd8095e8U, 0xbd8c87f23e1a99a8U, 0xbc76a9993e79a9e6U, 0x3db14c3cbd8fb339U,
  0x3d92dd163e0c8faaU, 0xbd9470d13e0a10c9U, 0x3db2b511bd1e86f1U, 0xbe7dd7dbbb83c9a1U,
  0xbcb8db8d3f11a52fU, 0x3e5134ea3e2dff3eU, 0x3d9084e03db896a1U, 0x3d4341893e2afddeU,
  0x3d8cb7aabcd3213aU, 0xbe2b37afbefe316dU, 0x3ec605643e3dbd92U, 0x3cfcf23cbe18a08cU,
  0xbdac1e093d82a78cU, 0xbca318cebdec505cU, 0xbef69bb53d60c567U, 0xbe42614a3e9fbaf8U,
  0x3d0b970ebda30d6cU, 0x3deb054abdcb4defU, 0x3d7106a2bda132adU, 0xbca1a32d3cb1e93eU,
  0x3dd0c7a73e15557cU, 0x3e1c396bbd887868U, 0x3e47f2873e0eaed7U, 0xbe2bf73a3e1ab482U,
  0xbe0ca83f3d477e7fU, 0x3c230226bcaf00e6U, 0x3de354e03e02f2e0U, 0x3e970af7bc9b5434U,
  0x3db4aae9bdef4cd6U, 0xbd9617ae3d912173U, 0x3d8610fcbcd1793aU, 0xbd6eb108bcbff1edU,
  0xbe4a322ebd9b3853U, 0x3db873b23dbceb99U, 0x3be4c470bda77df3U, 0x3e8c2235bf2669feU,
  0xbde19cc03eb36806U, 0x3e0eb2323d71ca8eU, 0x3d557626be976888U, 0xbe2b2de93e84d195U,
  0xbd8e2823be95be80U, 0x3ed2678ebe9840ecU, 0xbd918e303cc0051fU, 0x3e87e3433cace770U,
  0x3ab82827bde1ee40U, 0x3dbfe9f93bce2de0U, 0x3d06c1e5be7d13c4U, 0x3e0ba906bea4f0e2U,
  0xbf783054be3fcfe3U, 0xbc9b386e3d72ab3dU, 0x3e46472bbd0179fbU, 0xbead9b133e054c9aU,
  0x3dc94452bd4ffb79U, 0xbdaf68ae3ec6d9b3U, 0xbc39ccdb3f12a1e7U, 0xbddbc98ebd006a1cU,
  0xbd7ae6d43e8e00c1U, 0xbec8187f3dd76a13U, 0xbdee40673ec2428cU, 0xbd9c7d53bdead3f8U,
  0x3cab70dfbd772344U, 0xbe40eccb3df29b98U, 0x3e0be775bea37c28U, 0x3d4bd892bd3ff0dfU,
  0xbcf52364bda45b21U, 0x3e0725383e88e932U, 0xbd3992a33f175b0eU, 0x3d693c133d1d4d41U,
  0x3bb01c53bdc3472dU, 0xbd594b1c3e83a30cU, 0x3e77f1c7bd2d4d0eU, 0xbe4608083e8d35c2U,
  0x3dd149263c873c0bU, 0x3dea50233e30d0a6U, 0xbd8ad524bf0a659dU, 0xbe9429adbebdc17eU,
  0xbd98a8a13da56232U, 0x3e68e5753d3f62ebU, 0x3dffa025be6f9772U, 0xbc045c64be39d159U,
  0x3df037353ecd9d84U, 0xbda8d956be27b932U, 0xbeae587dbea8a89bU, 0x3d50d05d3e2675dbU,
  0xbe1f4d84bde96ad9U, 0xbc957954bdd1d8b8U, 0xbe1e2ba93f56292eU, 0x3cacc0733dcd1fb7U,
  0xbc9e781bbeb9e629U, 0xbe81c7e73dbb3368U, 0x3e290c2abe12a766U, 0x3f15ca40bd1e84a1U,
  0x3d4c35c4be9f8785U, 0xbe2247a6b98025fbU, 0x3e42aa0c3d70e6e8U, 0x3e3313aebc286e11U,
  0xbe3e664b3d6d4d65U, 0x3e7035f8bd72a6b7U, 0xbe25914a3d695701U, 0x3ebc87cbbde68e66U,
  0xbdd475223d8c7a70U, 0xbb70b7523e207867U, 0x3d803881be2c4f00U, 0xbdc446cabd0ba8e2U,
  0x3ef7d77bbba7b4b7U, 0xbda25d25be818fcdU, 0xbdf071633dd38abcU, 0x3d18323d3ca85c93U,
  0x3c987060be487898U, 0x3e6caeae3def7864U, 0xbe9c15febe09931eU, 0xbc944ed53d0d6e5eU,
  0xbc03f933bd102a2aU, 0xbdd7ded8bd3fcd39U, 0xbd085109be0926dfU, 0xbbed57ef3d49a6baU,
  0x3d0de14dbdeaaac2U, 0xbd99487fbd0b5bacU, 0xbd11d43b3dd63ea6U, 0x3bc944d53c92d197U,
  0xbe9f06edbd06d42aU, 0xbd6b89163d83d5feU, 0xbdb5c10dbd3af7a6U, 0xbe4d2b88be421ccaU,
  0x3e1c95a83d8c9adeU, 0xbdcff2c93de8674bU, 0xbbfbaee83e2aeae1U, 0xbdb9fcf83dae58aeU,
  0x3d42c58f3d74e097U, 0x3db729153db10770U, 0x3d852d223e087798U, 0xbea854a5bd6733a8U,
  0x3d8765883eeffbb8U, 0xbb7c9da7bdb1a26eU, 0x3d2e6d72bcd5692cU, 0xbd9edda4bcccacd6U,
  0xbd97a35a3d944c38U, 0xbe395b7ebe24aacdU, 0x3e4fc5d0bd84ababU, 0xbe1be235bd6bf360U,
  0xbd7bc6acbbf60604U, 0x3d2ef4c03ce30b16U, 0xbeba1a52bdab88b2U, 0xbe046e9d3e07e4ccU,
  0xbd6755c53da4cf78U, 0x3e2de7d23cd4a5eaU, 0xbc06f183bce0884fU, 0x3ab8500fbd4770a7U,
  0xbded93b5bc8aaebcU, 0x3dbcc43fbd1e2018U, 0x3e43579e3c32f9b7U, 0xbce9ee923d6d2953U,
  0xbe9f3207be13570aU, 0x3dcd45d5b91405f0U, 0x3d858a6d3c91dfdfU, 0x3ba93c1c3d966f31U,
  0x3c9968de3d64be87U, 0x3d641bc53bfd6ab4U, 0x3dd0c3703d969fa2U, 0xbd3e2e433c974bc1U,
  0xbc090bd6394aaa45U, 0x3e5840ba3dc73851U, 0x3d0fe7083db157ebU, 0xbe3b1045bee25db2U,
  0xbd12daf83c1ec696U, 0x3e00f4c53d6f57c8U, 0xbce1fa35be3c0e7eU, 0xbe10950cbd9efd42U,
  0x3f08a254bcd9fbddU, 0x3d918347bedda2b0U, 0xbe603b063da84bccU, 0x3d9cc5d9bd381826U,
  0xbd463534bdc3f8fcU, 0x3f0ceedfbd89b4b2U, 0xbee56774bd112975U, 0xbd842d353cdc70d5U,
  0x3e09a99bbb5f1b0eU, 0xbddde8f7bd6da9f9U, 0x3e069c43beb6cb5eU, 0x3c2cfdf33df0e160U,
  0x3d214d483d9cc503U, 0xbc010c5e3c8cc820U, 0xbd5d95b9bcc1106eU, 0x3caf9218bc229e70U,
  0xbf2fbacabdd1c5b7U, 0xbc76426cbc251fc9U, 0x3b017f97bc06acd9U, 0xbe99d53cbe94d901U,
  0x3e4d9403bc855793U, 0x3c8e6615bd2ef5a9U, 0x3cc9ccc93eb48064U, 0x3cd9cf913c755f95U,
  0xbd29ad69bcef4768U, 0xbcdb176fbd841b96U, 0xbdf107933d23b05cU, 0xbf0820afbcfb414cU,
  0x3d9a6f3d3f298ff9U, 0xbca140e9bcfb19faU, 0x3de1e67fbd0b8c04U, 0x3d01a6093d088a17U,
  0x3dcafa49bd93bb56U, 0xbeb9be7dbeac761eU, 0x3ee7858f3d79cf35U, 0xbd84a90dbe223f98U,
  0x3cb48f2b3dde1023U, 0x3ce9bff13b14b4bdU, 0xbf28d2c6bd9db6d5U, 0xbe0876e43e3de38bU,
  0x3a74e5913db87be4U, 0x3de5ce0f3cd6c86eU, 0xbd9e2b01bd03c9d6U, 0x3dd53ff33d88427eU,
  0x3d9647d23d40bf8aU, 0xbd311e6ebda7a42dU, 0x3eaf70e23e106fb1U, 0xbe17a1353d3df7efU,
  0xbecfc466bd9bc2c9U, 0xbe0addbcbd1e2be2U, 0x3dc681abbcf2c20dU, 0x3e62695abd83a13eU,
  0xbc3eb4bbbebd6210U, 0xbdddad483d5bb66eU, 0xbd457965bd5ffad0U, 0x3b392b233d1acf28U,
  0xbd80957cbd9612e9U, 0x3e09b930bda27631U, 0x3b7999023d074fd1U, 0xbc4f8887bf66f9f5U,
  0x3d5413093d936b4fU, 0x3e1178163d15ce5bU, 0xbd9be1e2be172b97U, 0xbcf270a13d4e7e01U,
  0x3f0bdfc83d7af30cU, 0x3ddba0cbbea34cf7U, 0xbe77835cbe17cb9dU, 0x3d801d1fbd7e6f33U,
  0x3d17e69cbd92f3bbU, 0x3e25fbee3d5f113dU, 0xbe7525febd810773U, 0xbda88ef23dcd5f6cU,
  0xbd5761ecbc8f5958U, 0xbdd387a8bd2df174U, 0xbce7418fbe0e8affU, 0x3d1d8e8fbdb621a4U,
  0xbd425eb4bd2daca3U, 0x389a7f1a3dd535d3U, 0xbc4567d5be463109U, 0x3dfc3d11bcd3c204U,
  0xbeb426563b4fbc7eU, 0x3d157d0d3d2bbc32U, 0x3dcb05623cfb9478U, 0xbef5e01bbe8b99c7U,
  0x3e33eeac3d3664daU, 0x3cc2c50c3ea8b97cU, 0xbce6378d3e9cb3f9U, 0x3de35198bcd3ebd7U,
  0xbcc93a113d5f0754U, 0x3d0826f73d8630ceU, 0xbaec43793cf0792eU, 0xbed04d463e2d9313U,
  0x3dc760783f1d23d9U, 0xbcff39ad3cad5a47U, 0x3d76480dbdd9c988U, 0xbd741f6e3d6d7ccfU,
  0x3c18486f3d12860aU, 0xbe92e8cdbefd64d4U, 0x3e9262f43e45d2afU, 0xbe239163bcb7a991U,
  0x3c388a703da28ecfU, 0xbdfe8d54bd02e86cU, 0xbf0111d03b38e287U, 0xbd7406583e18fffaU,
  0xbccb0755bd5c4d3bU, 0x3e80a551bbfec79bU, 0xbc4bd567bd450afcU, 0x3cffd58d3befd889U,
  0xbc67b73c3db22f80U, 0xbd9d49c7bc3d99d9U, 0x3e990b7f3c79bf93U, 0xbd826e903dd9b674U,
  0xbe622403bddc5439U, 0xbd7e31733cdb9926U, 0x3d8aff67bd9361b3U, 0x3e8ae154bd979350U,
  0x3cb66080be9d236aU, 0xbdb14e193d7b9c14U, 0x3c0e5b7f3da839e1U, 0xbd3bb6debe1ee4eaU,
  0xbdd5d271be00e63aU, 0x3db8aec6bcd444baU, 0xbd3305a0bbc9b39bU, 0x3d8369c0bf2b21fdU,
  0xbd5a4039be9b1a0eU, 0xbe37b3f7be9a22aaU, 0xbd9750adbea3e460U, 0xbe3aab74be6efe1fU,
  0x3e98831ebe66184eU, 0xbe6abe1c3e4cfe65U, 0x3ed03ce23e966a59U, 0x3e90993d3e81d421U,
  0x3cf98c18bdbd214fU, 0xbdc264dfbeb2dc42U, 0x3eaf5e52be60e40cU, 0x3e047cecbea752a6U,
  0x3dddf146be52d5ccU, 0x3e480c1b3dde8892U, 0x3e9bbeaf3e76c552U, 0xbde129483eac753cU,
  0x3eafd0cd3dbeaf6fU, 0x3e41e018be03d7fbU, 0xbd8e62203e8e29a9U, 0xbe16ad24be15c92aU,
  0x3e635d343de970abU, 0xbe068e8a3e792758U, 0xbe089a7c3db24d70U, 0xbc47000b3e16a3e8U,
  0xbec2b754be8c6659U, 0xbe8f0327bd90245aU, 0xbe0f947cbe305c97U, 0xbdb4de173ee70115U,
  0xbd97baaebe4e9f2fU, 0x3e3deeea3e40032fU, 0xbe080b153d54c0e6U, 0x3e3049bdbea6a89cU,
  0xbea5c056bdf1285aU, 0xbe6b77b73e5756f6U, 0xbe89528e3e119246U, 0xbeadaf1cbe13b7ffU,
  0x3dd6ef493e37c13dU, 0x3e0780a8be78fed2U, 0xbde367c03e2e54f3U, 0xbeb1e482be0c069bU,
  0x3e296795bdd35daeU, 0xbdd9e9203e4662caU, 0x3e26f351be8ce3f5U, 0x3ede10fcbdd7a823U,
  0x3e21e1e23e510176U, 0x3ebff56f3e178c49U, 0x3df4dcb3be47b183U, 0x3da5e69d3ef22ca7U,
  0xbe2f780ebe6abc63U, 0x3df32cb03ef781deU, 0xbdc4af05beb2d282U, 0x3e88efdbbf0a16fcU,
  0x3e2ccdc33e785afbU, 0xbd9f1f89bdfab3d2U, 0x3e8700c03dd2cc76U, 0xbe35053a3ea3b1cdU,
  0xbd65e30b3e0ce0d0U, 0xbe9f4681be3cefdfU, 0xbe48b274be0a5156U, 0x3e285e6b3ea22e76U,
  0x3e6aabc33e9b800dU, 0x3d50461dbe9f1555U, 0xbde478d33e70d9f5U, 0xbee9c0ee3e6aa0b5U,
  0xbd2277c6beac5435U, 0xbe44dcb4bddc9a21U, 0x3d1d4392be8d8e9fU, 0xbe94a0f5bdc498f0U,
  0x3d001841be6e3bb0U, 0xbddffcc83e938e5cU, 0x3edf8b643e20337aU, 0x3e2563f13ebedbc3U,
  0xbd3dfd3fbd4c8bd3U, 0xbe93e474bec87582U, 0x3e8ef0febe819d15U, 0x3eabca85be4056e4U,
  0x3d8fc1e9bdec5c1aU, 0x3ec97a903eb13267U, 0x3e3847dd3e039a62U, 0x3c8734043e8c79bcU,
  0x3df21fdf3e3848d1U, 0x3f05848dbec85643U, 0x3dc930793e1c3f88U, 0x3d0edd4bbeb60091U,
  0x3eb192f63e660e05U, 0xbe025b333d7537d0U, 0x3d7f26db3dceb577U, 0xbb82a3013ed5c4f0U,
  0xbe8b3371be19ac43U, 0xbe1ec6333a8fb83cU, 0xbd86917abeb7313cU, 0xbe540c813f026f7dU,
  0xbe38ef1fbee4f3e5U, 0x3dd3f55a3e57b5e9U, 0xbe0725653dbe35bcU, 0x3ec10851be383acfU,
  0xbd8a6344be6f0eacU, 0xbe9635023e6e630eU, 0xbdf2305c3e34878eU, 0xbdd1979db9c78bcfU,
  0x3e3ecd8d3dccdffbU, 0x3d13ca9cbddc50bfU, 0xbead5b94bc3f07beU, 0xbeca397fbe84e0d8U,
  0x3d16d71fbec15030U, 0x3e0a76753efa5de5U, 0x3e935a1bbe2762d0U, 0x3e8c076fbea54fe0U,
  0x3e740cf23e010c4bU, 0x3e70e70d3ea74892U, 0x3df70739be3c0002U, 0x3d6f80c13e9c998bU,
  0xbeab9086bd67727aU, 0x3cc885993c0705ccU, 0xbe74d73bbec76ad2U, 0x3ecf332bbec9fabaU,
  0x3ebbb8df3dfe5a18U, 0x3d712401bd9f83d1U, 0x3e117fb13e3b37d0U, 0xbdf11c123e88a992U,
  0x3cae95993e3585caU, 0xbe16d67dbe40357cU, 0xbeb60af13d0c752aU, 0x3e278d063efe1886U,
  0x3e7547bf3e83cd06U, 0x3dc9e85cbe84fd6aU, 0xbe11b9fb3ea20991U, 0xbe63e67d3eb64e41U,
  0xbd2f24ef3d86be39U, 0xbcf7e7133df6bdcdU, 0xbb3ab2f7bde6d111U, 0xbd46d77e3e069bb5U,
  0x3f2eaf75bd06eca0U, 0x3dceb478bea3b1dbU, 0xbe991dd9bbe089c6U, 0x3bfd3285bcd0f1ecU,
  0xbd177989bdd6e7cfU, 0x3e89e16a3d16c026U, 0xbe534ff1be48dcebU, 0xbcda0266ba18813fU,
  0xbe95cd173d7af45aU, 0xbd72c1e9bd8f614eU, 0x3d031cabbdcaca4cU, 0xbaebdfaebe05bedeU,
  0x3cf08ab6bd9536c0U, 0x3d3b6cbb3dfc84dbU, 0xbd6e76cabc9fda22U, 0xbd7f2b373b19e0fbU,
  0xbe8b56d3388587f7U, 0x3c18a2a9bd23aad6U, 0xbb8930e5bd39d55cU, 0xbefe922bbdfa391aU,
  0x3e21aae23c34441dU, 0x3d15dccc3d258595U, 0xbd8ff48d3eb6c04aU, 0x3ca39c49bc3f6985U,
  0xbd8d571d3df729ceU, 0xbcbb6cd53da4a33aU, 0xbc44a49d3e2d03faU, 0xbe8e06993d5f86fdU,
  0x3c8d2caa3efcc33aU, 0x3d87a9f13d8b1f3bU, 0x3d1cd773bd858bf8U, 0xbbb30e083dff3d5aU,
  0x3d170c15bd494b71U, 0xbe29f7bfbe88ad34U, 0x3e8da8ce3dbc447cU, 0xbe5ca56dbca13dc8U,
  0x3c07a638bc0c8126U, 0xbd0ca8eb3cdaa9a1U, 0xbebd0076bd04d765U, 0xbd70bb4d3cef5e87U,
  0x3d00bfd7bda942abU, 0x3db972553c9ee3deU, 0x3c286d7ebdf148c5U, 0x3dab2ece3d8a3da4U,
  0xbc8c860e3dd566a2U, 0x3d53b96a3ca1996aU, 0x3e9f2ff33dc1ef83U, 0xbd551b6a3e37f080U,
  0xbdfb9fcebe0779e0U, 0x3db83fe9bda68179U, 0x3e1ad960bcf37b19U, 0x3ec2c062bded4247U,
  0xbd8bcff0be80dd4eU, 0xbe0658613dc6200eU, 0x3ddcc225bc9e17f4U, 0x3cca9721bdd480ecU,
  0x3db1271fbdc8590eU, 0x3df474643dd56b72U, 0x3d338039bd8625b1U, 0x3df51838bef24febU,
  0xbd6ebd8e3e232176U, 0x3d9b676c3e7089baU, 0xbce5e0ebbda0b94dU, 0xbe5913e43e5af8a5U,
  0x3f077cd3bc844fc4U, 0x3ec0f0b1be8df19dU, 0xbe469311be7edb90U, 0x3e8bc457bd94ab6bU,
  0x3cbd79ec3d39585aU, 0x3eb15e073e85677eU, 0xbea23991bdd44614U, 0x3dd50f38bea7f725U,
  0xbf3fdec0bd44b99dU, 0xbd8d78d7be44b172U, 0x3d9df040be6ab89bU, 0xbe7fc1223e30a1d8U,
  0x3daea3d1bd56a7eeU, 0xbdd741b23ef267f9U, 0x3a8cb64f3eeda50dU, 0x3d2862ea3dfb7944U,
  0xbeaf03aabe0a086bU, 0x3e021d953d96ff1bU, 0xb9c395553c6f2a73U, 0xbeb51860be6b8149U,
  0x3ebf4d223e3eb2daU, 0xbdf4aeed3e021723U, 0x3ce3c6e23e632d80U, 0x3d530036bd8c817fU,
  0xbd1310903dae0d5aU, 0x3e1ac6e03ce2badaU, 0xbe8860a33c9af541U, 0xbea47b96be857e0aU,
  0x3d977cbc3f01ce19U, 0x3d8f4f453e20376bU, 0x3e302162bdec35e1U, 0xbe2446ad3cf28b2eU,
  0x3c73b1003e1f68a1U, 0xbddad494bf0cab2fU, 0x3eb0e8a33e9b247bU, 0xbe4c05e3bdbf5375U,
  0xbe73c97abd40b67dU, 0x3e1b05783aa640acU, 0xbea61fd7bdbf9a7aU, 0xbdc610b83e593667U,
  0x3dd30af1bdc3e646U, 0x3e5ca57abd4cf455U, 0xbdd6de20bef15430U, 0x3d4fe3f2be2a4db7U,
  0x3e3e8c5ebe8dfd99U, 0xbe43be66bea823cfU, 0x3e8d3eaa3f1bb766U, 0xbcb1e8483e8a5d04U,
  0xbe94fcaebdd2ddf4U, 0x3e5077f6bc5ab9cbU, 0x3dfc427b3dcab262U, 0x3db25b79bbad9b2aU,
  0xbcdf0865bed22330U, 0xbb4677c63d414808U, 0xbcda0bb9bdaaca6aU, 0x3db1fcc9be2916d3U,
  0xbe0135103e210fe6U, 0xbda29ec4be6e40caU, 0xbde2efdabc7a5817U, 0xbe8541cdbf06667dU,
  0x3cc0fccc3e259490U, 0x3d7c28863e243ecdU, 0x3c986928be983ae8U, 0x3d769cdcbc4c9e17U,
  0x3e1d02dfbda025f7U, 0x3ea80947be873bfdU, 0xbea91d63bd8c3fc8U, 0x3e06006a3cda8912U,
  0xbd42d8dcbd77eb96U, 0x3d7f7cbabd2cb565U, 0x3d0aca5bbe0248d3U, 0x3b728a6ebd2b6181U,
  0xbeb5a47e3d1d56a7U, 0xbd1ee717bd9a51e5U, 0xbcdd19f73d9aa35bU, 0xbd5a8a5ebe1e96b4U,
  0xbdb27471bcf1fd4dU, 0x3d922a763d1ceac2U, 0x3d010496be8ab11bU, 0xbc0025a23d8d8dedU,
  0xbdb2a258bc69f191U, 0xbe3dab2e3d87a5b9U, 0xbcb7cd96bdd04080U, 0xbee03e6d3e404bd5U,
  0x3e19bbdd3df940d5U, 0x3cccdc5b3e5f6ec5U, 0x3dc7d0a33bd74fb1U, 0x3d4124fe3cdf8e81U,
  0xbd05f865bd9f471cU, 0xbd47b8073d2d1218U, 0x3d9fdd763e5091cdU, 0xbe099e9d3e468638U,
  0x3d7bcd3b3ed54cd9U, 0x3da098353e6a114cU, 0x3db5ea71bd6131abU, 0xbe531cc23ef39e90U,
  0x3d3fce393d667946U, 0xbe85757abeef7ec3U, 0x3d24c6793ec81719U, 0xbe5464123d77f453U,
  0xbe1a87ff3d500c32U, 0xbdbb4de83dcc35fbU, 0xbdef25fa3b32d988U, 0xbde906a8be0994e5U,
  0xbd57249dbdad7a49U, 0x3ef29b81bcbb5d6eU, 0xbd89b5cf3cb52105U, 0xbce7fda63cbb1f12U,
  0x3cee3d633ccbbb0eU, 0xbd65dd5dbef6f291U, 0xbe353d393e230544U, 0xbb98d6253e72f7c9U,
  0x3e2c4d7bbdbd8a5fU, 0x3e28daf53d08e5c7U, 0x3e81cec6bc1ff679U, 0x3f20deb5bdc0bdc7U,
  0xbc216f403d0a64cfU, 0xbe02eb86bd15c271U, 0xbdad7fd7bd0b53d3U, 0x3cc8819c3d27c402U,
  0xbd1a1b9b3d0b07baU, 0x3bfa770e3e3e8204U, 0xbd47960bbcfac0bbU, 0x3eb7d819beaa4025U,
  0x3c469e34be16212dU, 0x3c97f00e3db35f98U, 0x3d9ce3d3bdc3f71cU, 0xbd6d8f3cbc1a69e5U,
  0x3e4e6b6ebd7dc4fbU, 0x3c5758e6bef91313U, 0xbed833e33d54d6cfU, 0x3e73f297bd82699bU,
  0x3d4fdd6ebe9a8f78U, 0x3eeb2dddbd426b46U, 0xbe981e72bd2c1b8fU, 0x3e0b56f13d8b559fU,
  0xbeaaff4a3cbd3343U, 0xbd4bcdd3bdf57f50U, 0x3dbbfa81be16073fU, 0x3c181cbc3df236e3U,
  0xbb1b02463cc826e2U, 0xbcab8fce3c88edafU, 0x3ba57425bce85d50U, 0xbc4eab7dbd943ecdU,
  0xbf13c2df3b6a3efaU, 0xbda7b4e3bde8b9aaU, 0x3d6bf0323d666ce2U, 0xbeb485c0be807ea8U,
  0x3e83a563bd5c8f89U, 0xbae150e9bd9301dfU, 0xbcb786533ecf35a9U, 0xbcaa19603e048a06U,
  0x3db9057e3d969052U, 0x3de4895a3d027728U, 0xbdb65ebd3ddb7a75U, 0xbea18e4a3dca787aU,
  0x3d9d1bc43f266db8U, 0x3bcb36a73cccb95dU, 0x3db2f252bcf397bfU, 0xbd6806123e193e23U,
  0x3dabe579bd76398dU, 0xbe614293bee42053U, 0x3ef883833e9671eeU, 0xbd8a9e83bde10e26U,
  0xbdcf4959bd1c05daU, 0x3ccb249d3ce7b27eU, 0xbf1dc8acbdf14515U, 0xbda548983e985e81U,
  0x3d8fa795bd66bec7U, 0x3e835d6f3d9ca5c7U, 0xbe2bf53bbd7b3e9eU, 0xbcabcd783dac28e5U,
  0xbdcb048f3df19e37U, 0x3c30207fbe641686U, 0x3e66c5053e4993bbU, 0x3cbdfd053e3c6f80U,
  0xbeadd14bbde1a3abU, 0xbd2fb0223ce9a7e2U, 0x3dc462023e432f5eU, 0x3de72084bde7ccc8U,
  0xbd8eaff83f199359U, 0x3d7f211e3d39265bU, 0xbce4c5043b8d30e8U, 0x3d928b16bd82617cU,
  0xbe326fcebe2076c9U, 0x3e51fb613db41181U, 0xbd01f8dfbd3b86d5U, 0xbd2e2565bf3242f5U,
  0x3d1383dbbec3ae17U, 0xbe549946be95fa48U, 0xbc4e6f3ebead24a2U, 0xbe98b1f7bed2daa2U,
  0x3dbd36abbe8798d0U, 0xbecc78c73f0d0ae3U, 0x3f10b1243f1d6f9eU, 0x3ed33c8b3eb35e76U,
  0xbd5973bcbe5110d4U, 0xbe5b2729bf052b42U, 0x3ec90cbcbe84d320U, 0x3ea21609be4320ffU,
  0x3e9d72d9bea70458U, 0x3ef179bd3ef7dadbU, 0x3eb16b9a3ec6d9f7U, 0xbf0931833ee3eeabU,
  0x3ecea4cf3e54c503U, 0x3e912e4ebf1a866bU, 0xbd09e4373eb860f1U, 0xbdc6aaa1be230141U,
  0x3e689a323eac63f2U, 0xbe5b2a463cce58a3U, 0x3ce4d3143e7a485aU, 0xbe32186d3ed851f3U,
  0xbf04d3edbea896beU, 0xbe9beecd3e45b139U, 0x3d534598be61ea9bU, 0xbe3336ec3f1a20abU,
  0xbd91205abeec494cU, 0x3e6c1e503eb6d9f8U, 0xbe85b5353db26442U, 0x3ec6ee95be196b67U,
  0xbf120cfabea25874U, 0xbf254c593eaa5bb8U, 0xbf06d8363e58ca30U, 0xbdfaf455bea820deU,
  0x3e57b0d23deeb978U, 0x3e79df8ebe796a38U, 0xbe8a299a3e9f6932U, 0xbec73772beecc587U,
  0x3f000469be6701daU, 0x3efd10883f045d7cU, 0x3e8c8cb0bf167446U, 0x3f076c10be9abe00U,
  0x3eab6e763e9f66b4U, 0x3e9cba2f3ec0ab13U, 0x3e99f186be968addU, 0x3e50723c3e45592fU,
  0xbec1cc01be0e442fU, 0x3e7535f63e70c112U, 0xbea4c8efbf2ad240U, 0x3edfc7e9bf35ea17U,
  0x3ed464333ee3df43U, 0xbe420c443d86ac5fU, 0x3ec061203e9e18a0U, 0xbeb374d33e9996deU,
  0x3ca8ba8f3d4c99ddU, 0xbed33688bee54437U, 0xbf0aac16bd3ace75U, 0x3e0552733f00b941U,
  0x3e449c883e95772cU, 0x3e2e2024be9037c6U, 0xbdf3b0d23ef2e4c6U, 0xbf1b8d683eb7e581U,
  0x3d0ef7acbe8c4f5cU, 0xbee6726f3e98d3b1U, 0x3dcef42d3ce60611U, 0x3e1c83183ec6c207U,
  0xbdb4a0153f03c552U, 0xbcffc1b5be87db56U, 0xbe1f164dbec378ffU, 0xbecc6b5e3e633cddU,
  0xbeae4e933eaef610U, 0x3e3bae07be6dca93U, 0xbe5658a63ee10cc0U, 0xbdca95353e9a26d1U,
  0x3e176e79bd5e438aU, 0x3e0791fe3d9c2ebeU, 0xbed9dfadbec51413U, 0x3e650698be442374U,
  0xbeb71bc5be8b825aU, 0x3e15bcac3c3492f3U, 0x3e1a4e01bdb6002bU, 0x3e8c5f42beacb48cU,
  0xbca758b6be84b95eU, 0x3ec374bbbe4f31ceU, 0x3f2f1fc1be5b6818U, 0x3e71f2c63d9e9c35U,
  0x3e9f91aebc887a4eU, 0x3ee141e3be4ce519U, 0x3e7f06813d3f3567U, 0x3d512ceb3dad9804U,
  0x3e997da9be95f953U, 0xbea559adbf024c61U, 0x3dfaf6ba3e4b7523U, 0xbd4f9ac73d12ad0aU,
  0x3e6b0bd63d7ca9cdU, 0xbe0037aebefd7276U, 0x3ebdd359be53bf52U, 0x3f185d973e24d214U,
  0xbe482d8bbe8e9ba1U, 0xbf0af9c93f0ed456U, 0x3d911e36bf28639fU, 0x3e8ce0ad3ee1eae1U,
  0xbed4bc2fbeb50e75U, 0xbe43a03c3ed1db38U, 0xbe3f08fa3e9ea259U, 0x3eb29ca33d82ec10U,
  0xbd210683be477298U, 0xbe5918fa3ed6cb93U, 0xbe4e0c123e3c7527U, 0xbe409bb1be63e5ebU,
  0xbf00ac043e86b46fU, 0xbe14c9cebdd875adU, 0x3ea836ae3e908236U, 0x3ecf5f593e3c160bU,
  0xbd4b703cbe71ecf6U, 0x3ee92b663e6d39eeU, 0xbec2ae7c3dc3564eU, 0xbe8c7dfbbece16feU,
  0x3e185260be2df592U, 0x3ee7eb833e5d7b96U, 0xbe2716e13e75059eU, 0xbf058e78bd8a0ef6U,
  0xbd6be391be8b99aeU, 0xbe88be7b3e8b9006U, 0x3ec59fc63ea470a9U, 0x3e8e9c2dbdcc18fbU,
  0xbd24b8b13e8ec7aaU, 0x3e9d7a3d3e84b4d5U, 0xbb8ccc8e3e17205dU, 0xbdd9fd403de61ff5U,
  0x3d6e8ccbbb353660U, 0x3ec3df8bbf3b52fcU, 0xbf1577b7be073cb7U, 0x3d0254f0bcb633aaU,
  0x3c16316cbd20bbfdU, 0x3ef4bbfa3eb49ee7U, 0xbf032f76bdc2e455U, 0xbcc836c0bdc760faU,
  0xbea603003d4b6a49U, 0xbdaf7f04be02cb28U, 0x3e1fc4d6bf0ee8a4U, 0xbe39592fbc849341U,
  0xbd806227be3e44d9U, 0x3d6c37f83e313ad7U, 0xbd34f836be1072d7U, 0x3d453fd4bc7581d3U,
  0xbf2d2ea2beb6cee5U, 0xbd8567483d9c9945U, 0xbe403031be047620U, 0xbe1ce753bf19687cU,
  0x3ed10ea53e89930bU, 0xbe1d6e0c3d949115U, 0xbde1a1823f04da27U, 0xbd449493be1cbb58U,
  0x3cf87a2f3e02116eU, 0xbdf2b574beb9aca3U, 0x3c07487cbea31f30U, 0xbf3502eebe17e29eU,
  0x3e73fde53f438391U, 0x3dc931a1be84999aU, 0x3e729a70bda969f9U, 0x3c3277f53e22d6aeU,
  0xbd387c0abc9f9ac0U, 0xbf0ce995bed0aaeeU, 0x3f05f5ce3e7fa545U, 0xbcc071aa3e3c321aU,
  0xbe7eb6c83e94e8daU, 0x3d1cc2c8bdbfc2f1U, 0xbf2950c4be24f5f0U, 0xbe6c2b923f0a0ddcU,
  0xbbf739c6bde39196U, 0x3e80a63fbdf5154aU, 0xbe7fc227bddceea4U, 0x3db71e973d6a6ba8U,
  0x3e751696bd001b7aU, 0xbe8bb474bec17cc4U, 0x3ee19f1e3e6b4bfcU, 0xbe661ee83ebebae8U,
  0xbec02aaabe82d777U, 0x3ea311d5bd69c980U, 0x3dc11aabbe892af7U, 0x3f430492bed89ae8U,
  0xbd605cedbe650319U, 0x3d62d48c3e4797e8U, 0x3da4910e3d4949d6U, 0x3d6cebf6be9e17ebU,
  0xbbc15682bd49f335U, 0xbe0107733bf0069cU, 0xbd03b4a5bddc8909U, 0x3cdaefbdbf74e590U,
  0xbdd176a5bc84c8dfU, 0xbeb647853d9c3b96U, 0xbd0fe323bebf9e0eU, 0xbe1996e93dc948e7U,
  0x3cc4b64038da2287U, 0xbe6173dabe334c24U, 0x3b98fd4b3dd7398dU, 0x3e8934a43e3c45ccU,
  0x3ccaccf5be983125U, 0xbea65398beb83805U, 0x3eccf3e0bdccf9c8U, 0x3dec6fb9be6d9827U,
  0xbf4aa915be155b56U, 0x3ecf3de33e868cbdU, 0x3e8978603eb5aa60U, 0xbe6d7a673e53f3fbU,
  0x3dfeb1b0bd15b888U, 0x3e89f847bea0fdffU, 0xbda9a4ce3f3e8c74U, 0x3c40c853bde3184dU,
  0x3e8bd0ea3e9acf85U, 0xbd6def213e03b23fU, 0xbc01b28e3e8953e8U, 0xbe69132b3ee69428U,
  0xbaa44866be718311U, 0xbe2cfef03e99f27bU, 0xbc7e99f7be202d19U, 0xbe07aa9b3ed3a05fU,
  0xbdd91effbe66ae2aU, 0x3ddc4f2c3e8a52c3U, 0xbdb590213e6f4128U, 0x3dfb81e3be526840U,
  0xbe6c6e42bdd5d31dU, 0xbe25e3543eb02e03U, 0x3d26c2463d3d244aU, 0xbdb2215fbafffabcU,
  0x3c8832613d159963U, 0x3ddd04d5be9f19faU, 0xbe69a1423f16a63fU, 0xbf1afd92beff8386U,
  0xbe182f54bca934afU, 0x3e68c0663e909444U, 0x3e6f17a9be64cfa4U, 0x3ef5d124bec9b85dU,
  0xbc91da073f046e9aU, 0x3f1b1ff13da3a012U, 0xbc894dccbe92d26cU, 0xbcf215c43d8b8493U,
  0xbe79e5ebbe54911bU, 0xbd2c7dc53e9e84cbU, 0xbef399e83ef0089eU, 0x3ea8e778bd5e5156U,
  0x3ecb94bf3cab168fU, 0xbe454bb33b91af35U, 0x3e2810de3bfc1494U, 0x3e2b6ccc3ddfbf41U,
  0x3d056fc0be2c64ddU, 0xbec1ba183d4be859U, 0xbe953905bd84a1fbU, 0x3d6ed4c43e0b7ea0U,
  0xbea7483b3da558ffU, 0x3eb777d9be6c3dbeU, 0xbca8cfb93ec23f2dU, 0xbdf443c93ccb9c3dU,
  0x3d1f2eea3ede3220U, 0x3e035d2e3dcb0d79U, 0xbd2dad7bbdf77317U, 0xbd89ae683e5823d2U,
  0xbe8926b9bcaad2ebU, 0x3e9fdadfbec2e685U, 0xbe83c0aebe449b85U, 0xbe1411b1bcf6c146U,
  0xbcee09693cab5745U, 0x3d92d67f3e9fea8bU, 0xbea9d5553e315a25U, 0x3def2b033bfb056eU,
  0xbf1a6809be3919cdU, 0xbe05fc30be1ece2dU, 0x3d494671be486f37U, 0xbba80a6c3dc2490aU,
  0x3de41d3dbda9013cU, 0x3d0080693e60489aU, 0x3d02b75d3e654f9bU, 0x3d548906bcf0f165U,
  0x3de2a3c13cd06907U, 0xbc2512f03bddda9cU, 0xbe5769bdbd82007fU, 0x3e72d2793e10775aU,
  0x3efcec2b3c9771d0U, 0x3b851ff4beff77a2U, 0xbc91e4a63dc3b96eU, 0xbcabe1debe029f63U,
  0xbe12759bbd2c8b4dU, 0x3c0c7d9bbdbb434dU, 0xbe7f1f423ed6ec7eU, 0x3dff6599beb08f2fU,
  0xbe07f6dcbaa50d08U, 0x3dd25e6bbee5b98bU, 0x3e95468d3e083c6cU, 0x3c81bc6abc2d4012U,
  0xbe00e248bc488fdaU, 0xbe6f8beb3f219e1fU, 0x3c4d826fbf0e4b5bU, 0x3eb660f63e913469U,
  0xbe0887ac3eb23e3cU, 0xbe11d86b3d2ed96dU, 0xbd9535273d3b168aU, 0xbe2907123cb81842U,
  0x3d78391fbf0042cfU, 0xbf12c398bebdd5f6U, 0xbe299f2e3e4873a5U, 0x3e1c39dc3ed1b793U,
  0x3c38f54ebd05402fU, 0xbd9305b5bf09d8d0U, 0x3eacae6c3edee2eeU, 0xbe302f813f22d3b4U,
  0xbc2aa0c7becf5a5cU, 0x3e284d7c3d870782U, 0x3d4bbdb2be2ac6cbU, 0x3f70fa86be46fb6eU,
  0xbdd3d6553f2a535cU, 0x3e8e4c523d6b5bc0U, 0x3ee31c603d185174U, 0x3e1ba90fbe5193f4U,
  0x3dedfb99bea9f489U, 0x3d86872d3ee5dc07U, 0xbda3b3cbbc4276b7U, 0x3e5790bf3df43c37U,
  0xbcb30585bbed47e4U, 0x3e7ef8403d13119fU, 0xbd38c23fbd94a295U, 0xbd6781543e6082e9U,
  0x3f078d94bd4ffa6dU, 0x3e5059c0bea6ee6dU, 0xbeccaf9fbe22e33bU, 0xbce76886bde2f1c1U,
  0x3d731bc83d44e261U, 0x3e5a61ee3e8f28cfU, 0xbe99da35bdce5b41U, 0xbcb879a83d8b68f4U,
  0xbedfe8e23d5f3ec6U, 0xbda07a1ebe7a094eU, 0x3e2d008bbde3782bU, 0xbd8d5655be11cbbfU,
  0xbd9e2a5fbde287a2U, 0xbe11e4dd3e2dc751U, 0x3d8a1827bdd3cfacU, 0xbd9f0cbb3d3c8dceU,
  0xbeeb8c2fbe1bf86cU, 0x3d4919cebd520483U, 0xbe109d76be205e1fU, 0xbed563cfbea12622U,
  0x3e8306073e5c1cf5U, 0xbddf91853e903fdaU, 0xbb8dbd603ebf9909U, 0xbcf64171bd03aeedU,
  0xbcdb81443e066e5dU, 0xbe03496fbe171f25U, 0x3d3ae27e3e13ecc7U, 0xbea3f5123e860313U,
  0x3e1790303f16cb7cU, 0x3e6cdca33cd3f69cU, 0x3d642a88bdfe7936U, 0xbd5f9ee23af31e69U,
  0xbd21144e3d2e5ebbU, 0xbe97e4d9bf396b43U, 0x3e8cff763ecd07b7U, 0xbdfaeaae3e596092U,
  0xbdb98dd73e009f93U, 0x3bb094babd9bc7cfU, 0xbee2e5b63d8ec77aU, 0xbe4954b83e5e3c9fU,
  0xbdc63545bdcc169dU, 0x3e91d03fbd8b6e63U, 0xbe48b9f1bc81d1b4U, 0x3d05d441be85777eU,
  0x3e55cbc93d9dd5f7U, 0xbd702870bc7fac0fU, 0x3e926dd53e9fa7c4U, 0xbda0307f3ea22252U,
  0xbe2a1f28be10e72bU, 0x3e52d6e33d795118U, 0x3e2b6cb0bcdbe0a9U, 0x3eea3eb8be3a1b65U,
  0xbd9c63abbe100194U, 0xbde4f1113dd2e4d0U, 0x3e4721693caa49fdU, 0x3c486ecebe1d5e00U,
  0xbe14bd20bd49233cU, 0xbd3afc7a3c319a73U, 0xbd4262f8be802a69U, 0x3e943f46bf2a50eeU,
  0xbe5202c8beb51feeU, 0xbea5e873be4b4a71U, 0x3d824e31be81e002U, 0xbe592256be356218U,
  0x3ddfc71cbe83eeb1U, 0xbef58cf43e0913b5U, 0x3ec4cd803e9e71abU, 0x3e6613e13ed2cb1fU,
  0x3c4ca79fbcba9fbbU, 0xbe2fe076bec1e7f9U, 0x3e75c59abe43009dU, 0x3e0aab09be8213d2U,
  0x3cabba5fbe237ceeU, 0x3e89b7553e88aaebU, 0x3eb42d123e24171bU, 0xbe2b01f63eac7960U,
  0x3e8d400b3e2f1dc7U, 0x3e81d5debe92faccU, 0xbb7fb13e3eb7296eU, 0xbcb21f6fbe736138U,
  0x3e8622563e17b1c2U, 0xbde6ac5a3ddac69cU, 0xbd6f9d8d3e4eb959U, 0xbe40a5e83e7fd5edU,
  0xbe79acfcbeeb8288U, 0xbea46f333e19e2c9U, 0xbe0249f6bdecbcedU, 0xbdfe02ab3e96b031U,
  0xbe3d019abeb7b34cU, 0x3e86d1733e66ab39U, 0xbe4dd080bd60c82bU, 0x3e25fad0be718e85U,
  0xbee3e099be11d7bbU, 0xbe920efc3e756136U, 0xbecaa9653e66937eU, 0xbe84ac23bdb6934dU,
  0x3d803d473d0dd2aeU, 0x3e284aa5be81a706U, 0xbe39a3243eb13db4U, 0xbed5c516be9b7e6dU,
  0x3e8255e4bd9e3a6bU, 0x3dbe0eba3ea07c21U, 0x3e0a86f7be96eacdU, 0x3ec4049ebe7b57e5U,
  0x3e706f1c3e9863d7U, 0x3f07f2523e0fd3bcU, 0x3e0564cbbe12bf9eU, 0x3da0a9103e97cd5cU,
  0xbed117b4be79448cU, 0x3dcab8ec3e3aa357U, 0xbe351d07bda44dd6U, 0x3e5c0645bee4681dU,
  0x3ebb693c3e68d106U, 0x3c11e07abd150414U, 0x3ea516b43dc745feU, 0xbe6d12a13e0a9409U,
  0x3d98d9adbd0a5cd6U, 0xbecfa239be99203aU, 0xbe99320ebd79f28bU, 0x3e82a6063eb2477fU,
  0x3e9fd31a3e62959aU, 0x3d3735c7bed30bf8U, 0xbe848bbe3ecba325U, 0xbf0dae013dca47bfU,
  0x3d5a7dedbd42893dU, 0xbd93cecf3e29a208U, 0xbd5701afbdc7e08dU, 0x3ca21cd03dbc0878U,
  0x3f016be43a756608U, 0xbdb5dfdfbead9511U, 0xbe744ee9bce24649U, 0x3cb992e53bf13e7aU,
  0xbd44b73bbe71d6aaU, 0x3e84d4da3c1c8dfdU, 0xbea7147dbe10d017U, 0x3e02b485bd51f604U,
  0x3cd584f9bafb53abU, 0xbd7a05cbbd9e1038U, 0xbcef1c9cbe2abbe9U, 0xbd77d20fbb00426bU,
  0x3df1ced3bd94a24dU, 0x3cae85b2bcac0f70U, 0x3cb510053db60151U, 0x3c2a21a4bd42189fU,
  0xbea2d228be1f3588U, 0xbdd5a0b83bb83ac4U, 0x3d49e67a3bdec4f9U, 0xbe9aefe5be136dc6U,
  0x3dd6105abd6d2261U, 0x3d57acfc3df5db95U, 0x3d69c50d3e873a5fU, 0x3dafac2cbd1943caU,
  0xbd43621bbc5866a4U, 0x3d817f2bbdb75188U, 0xbdb362ce3da2fb32U, 0xbe8b6d743d101caaU,
  0x3c72bec73eea9cadU, 0xbc8c7c18be2fe0d2U, 0x3d82e0613d483339U, 0xbdba0efbbe2077a3U,
  0xbe1b838f3d87973bU, 0xbe4af6b0be2b15aeU, 0x3eab50023d53ef89U, 0xbe686bf5bca422f1U,
  0xbe0e46e33d2e4ea2U, 0x3d99f95dbc3f7eafU, 0xbeacc658bd8fb941U, 0x3d590a283ba73667U,
  0x3b592196bb0c0027U, 0x3dd311b9bc0aa910U, 0xbd209180bde83701U, 0x3d329b8d3da599ddU,
  0x3cb84e663d5ace3dU, 0x3de60d60bca48899U, 0x3ea06d8f3ccdd351U, 0xbdc897bf3d91b43bU,
  0xbe9aa8f3bdbc4dc6U, 0xbd162bddbba16566U, 0x3e4dc5d13db6e959U, 0x3d49b7d8bdeef4fcU,
  0x3a9c89b1bde86da1U, 0xbc77db823d32c0b5U, 0xbd3e03fbbbd83ee7U, 0xbd528424bdadee0fU,
  0xbdc613893ceb1972U, 0x3de55d85bcdf560aU, 0xbccd0841bcac2099U, 0xbdba0a55bef476e6U,
  0xbd1cd14abcc9d2ffU, 0x3e0447f63ce44187U, 0x3b841718bd1a6e74U, 0xbd52b05ebe06aeb3U,
  0x3eaa8706be011db0U, 0x3ea914b4be91c306U, 0xbec5b971bdfa3c10U, 0x3ea593dcbd054282U,
  0x3ce847a93e32b75aU, 0x3e99be073e464a5fU, 0xbdfc315f3d839063U, 0xbcb969d2be466bdeU,
  0xbf2bf9a1be24513aU, 0x3b405856be3cfb5cU, 0x3d815dddbe118d51U, 0x3dbf59843e468a1bU,
  0x3db20f193d70e7e5U, 0xbe10c1243da555e2U, 0xbcb2b8d43d44a04dU, 0x3d1da882bce59e26U,
  0xbef3f6813ce4bc1cU, 0xbe4ac3703de84b5fU, 0xbb64d4413dbd525fU, 0xbe42486ebed194e4U,
  0x3e5885d33cbfecb9U, 0xbd887d6ebab42be0U, 0xbc92fb8b3e0bbbddU, 0xbcceb75abd55c533U,
  0xbdce7b083db644beU, 0x3e523205be02e22fU, 0xbd317c533e7e2c8eU, 0xbec30cd2bd108020U,
  0x3b8ef69c3eee26dfU, 0x3e11ffdbbd524284U, 0xbc2ab11a3ddbdab5U, 0xbe11f0533ecde909U,
  0x3e7540fa3bf6be23U, 0xbe1f2af8be7e658fU, 0x3e828dc03d2be6cbU, 0xbe169d9ebced9d2bU,
  0x3da7cfc6bdfacc4bU, 0x3e4dbc74bd066621U, 0xbed7af9c3d4f4e4dU, 0xbda980e33e152262U,
  0x3e018b34bdbfcf41U, 0x3db343763bc977f0U, 0x3df46dcfbe92eb99U, 0x3da86465bcb0e999U,
  0x3d2f6507bc16b563U, 0x3e055960be8e6235U, 0x3d9dfa703eb4efedU, 0xbd3b7bd53e559d75U,
  0xbe22785a3c28e736U, 0xbdaeb213bc64e115U, 0x3e1c47f73d223f4cU, 0x3f1aa5f1bcc6e2e2U,
  0x3d4d9534bbb58627U, 0xbe23ace5be2e32eaU, 0x3c00d7f1bc292823U, 0x3c71f3bebe54813aU,
  0xbc2cb58e3e09760bU, 0xbe0d695ebd7e71baU, 0xbc9fb2743c506c17U, 0x3e50acd7bf2b3a05U,
  0xbab02aca3d4873a1U, 0x3d9cbc513da5e3f9U, 0xbd26759fbddef354U, 0xbe2c6963bcdc7102U,
  0x3f0c93b6bdbd5566U, 0xbdced85ebebf6713U, 0xbd678ab93da2401dU, 0x3e43e8a6bc8af9c1U,
  0xbc96e2fbbe120786U, 0x3e9350d6bd371171U, 0xbe476c63bd8f7047U, 0xbc81e3123cd55bceU,
  0xbdadbaadbd73bb23U, 0xbd90e417bd7fe4fdU, 0x3d03f74ebdbbc130U, 0xbd1e5ba83d9421afU,
  0xbd6c7ce6bc1e5592U, 0xbe0ce1613d71b905U, 0x3d9297483cb36cf0U, 0x3d4a3981bd2c20cdU,
  0xbec7fa1e3da2a9ddU, 0xbcb7836cbd64f3a9U, 0xbd3f88393d26b9b7U, 0xbee87fc8be52e013U,
  0x3e66d2973c9f25cbU, 0xbcb17d77bd529ea0U, 0xbcb8d5723e5cce3bU, 0x3d7f5d003dbe57ecU,
  0x3e24102fbcd0cb77U, 0x3d981a613e2a4622U, 0xbce8a3233df4333cU, 0xbe6146b1bbceeb11U,
  0x3da585423e9fddf2U, 0x3cadb1bcbd833b55U, 0x3e74660fbdac5dbcU, 0x3d9da1d03c8ade08U,
  0x3c1d349cbc5debc4U, 0xbdec7cbdbe445984U, 0x3e9f616ebcf07d65U, 0xbdf750d4be523200U,
  0xbd40bbf7bd1105ecU, 0xbd8788013c3f89fbU, 0xbed493c73d397cb5U, 0xbd63459f3d74e56cU,
  0x3cdbd6ca3d88b560U, 0x3e56e26c3bb373b8U, 0xbe03bc75bd7f3869U, 0x3d7610463d96a99cU,
  0xbd0122f93dd2cbb7U, 0x3dd4f9df3da3ddcaU, 0x3e216b5a3ddd51b6U, 0x3ce282733c88b1baU,
  0xbe91b6cebdd2aee2U, 0xbd4c7b833d1882bbU, 0x3e230984bbc36401U, 0xbdfb2e4fbd4807a5U,
  0x3d2e5999bd9dcc52U, 0xbe1a26173c78154bU, 0x3d161d7d3df518bbU, 0x3db8f6f3bd892695U,
  0xbe5424f7bda94e58U, 0x3dd9fd493cbc366fU, 0xbd8185e43d99243bU, 0xbe33e4abbef5a5bbU,
  0xbca239073cdc54acU, 0x3d87f5183dec7698U, 0x3b15d312be7b7d68U, 0xbc9207e5bd9091c4U,
  0x3ec57752bd154f6dU, 0x3e53356bbec09a4dU, 0xbe98e2ebbdec2225U, 0x3d9530c0bcb18515U,
  0xbd428330bd491e88U, 0x3e8bbbbe3e5ad9a6U, 0xbe5af631be266f45U, 0x3c5d02e1ba9be741U,
  0xbdd16d403d2d696bU, 0xbdc0e531bdf75c4bU, 0x3d07fcadbe8e89eeU, 0x3db3432abd9fc664U,
  0x3e1351cb3d5bfc3cU, 0x3d9faa6b3da15b0eU, 0x3bd97e40be2d22d4U, 0x3d3b3557bc9f7149U,
  0xbee5eaf0bcec5fe7U, 0xbc4d7f23bd5ffc80U, 0xbe0143f13d1f5653U, 0xbea7ce6cbe5f87f7U,
  0x3d7a6644bd54fe8cU, 0x3ca168eb3e324a76U, 0x3cd55ed63ed4813cU, 0xbd8e819ebcd6fb0aU,
  0x3d92c55f3ddd22feU, 0x3d5d8ceabdc7ddf5U, 0xbd8cba0e3d73a2f5U, 0xbee5c775bd25e6baU,
  0x3dbab6ce3f2b445fU, 0x3e0d4846bd5a3980U, 0x3e1bf0783d46a5b4U, 0xbd8129dd3e8194bfU,
  0x3d63fee93cbc538dU, 0xbe69d9dbbf06c2a9U, 0x3eadb7663ea0ae59U, 0xbd0d6639be09f35bU,
  0xbdf76caf3d1acddaU, 0xbd8bf6bf3d088ff8U, 0xbf072b64bda57c2dU, 0xbded354c3d15fe43U,
  0xbc59de8cbd909879U, 0x3e33e6cebd8b6b2fU, 0x3a8c8755bdcf98fdU, 0x3e09c8173d974b72U,
  0x3e163fa2bd9308ccU, 0x3c6f5141be872427U, 0x3e95af553e1d13ffU, 0xbe3464c43e2e7b1eU,
  0xbe2fff68bb8a8e9cU, 0x3d755e9a3c9b33bfU, 0x3db17e7f3c8ff612U, 0x3e86ae50bded6668U,
  0x3d103ff7be59b7aeU, 0x3c240e06bd263c77U, 0x3e107dc8bd8a91c5U, 0x3daea657bdeaf24bU,
  0xbcf22385bd4fe2c8U, 0x3e0dd9593d88ca68U, 0xbcb58798be0aedcfU, 0x3d75ddd1bf40a6e8U,
  0x3d13123c3d7fabd9U, 0x3dc1433d3df57e3dU, 0xbd2093d8bd734061U, 0xbc35463e3cd68faaU,
  0x3f12e6553bb1cc6eU, 0x3e26b643be880e9dU, 0xbe1b85bebdb0356eU, 0x3dd0c217bda9b35eU,
  0xbd520b4abcbd8b10U, 0x3e8ab1de3df65a50U, 0xbe7c4cfabdb7ceeaU, 0xbd90b6513d6df3ffU,
  0xbe4e19443cf79f8cU, 0xbdaeec15be21d050U, 0x3dec5306be2060d5U, 0xbdec34d63d396f55U,
  0x3d671895bdc457d8U, 0x3d471f5d3e514f36U, 0x3dc5504ebd1148e4U, 0x3c8e30e1bd06f39cU,
  0xbed46089be19a876U, 0xbd9ae74dbd903cf0U, 0x3d2882833c51a3c6U, 0xbe64d9dfbe3c9405U,
  0x3ddf16a5bcf0a15cU, 0xbd9b3ebe3e02d4f8U, 0x3ceb8b4c3eb24faaU, 0x3d3951e4be018611U,
  0x3d24b2983d3602e5U, 0x3d3b747cbd6b047eU, 0x3dbd4c523e136464U, 0xbec2db703cf8afcaU,
  0x3d5bf6043ef1059dU, 0x3dfd850d3b5d004eU, 0x3da7342e3b248b50U, 0xbd19e6683d88276aU,
  0xbd3007003bb4f43cU, 0xbdf4fa9bbdafaf61U, 0x3eb1cc69bcfd46bcU, 0xbce16f683dca5c77U,
  0xbd80abf93c9dc449U, 0x3dcebfa4bd98bfcfU, 0xbefa21f1bd832f34U, 0xbe19cd5c3dde5df1U,
  0xbd9da122bdbfdcfbU, 0x3cce23f8bd84e4daU, 0xbdd1a95c3d824071U, 0x3bcba40a3d895cc6U,
  0x3dd23c2dbd4503a4U, 0xbd736d87bd3fd916U, 0x3e9b20473d0f9a0bU, 0xbd3ecc7a3e5c78b2U,
  0xbe93e383bdbff182U, 0xbc8322243d90cdcdU, 0x3e072393bd2f38fcU, 0x3e87b150bcc965a4U,
  0x3d89eaafbe3172b9U, 0x3bf5b1b13d00d5a9U, 0x3c4dfe573c6fa8acU, 0xbd8edadbbd47e132U,
  0xbd89d27dbc4e3cdaU, 0x3ce61ab9bd3b26cfU, 0xbd755b753c770e3aU, 0x3d91c968bef43e43U,
  0xbc0f2926be26129eU, 0xbdbc3704bde8c4daU, 0xbd9cb655beb4fd20U, 0xbe46a10bbe5d0a1dU,
  0x3e58e467be24bd39U, 0xbe9bb1413dcff34fU, 0x3e1c311b3e89c11dU, 0x3e4271193e18595aU,
  0xbd240cdbbd8fda1aU, 0xbdf9b451beb36f0dU, 0x3ea626bfbe93ffa8U, 0x3e3d9a48be36bad9U,
  0xbdead886bde4127dU, 0x3ddd7ecc3e1ffcd7U, 0x3e183f623e8b72f5U, 0xbef8c48d3e93cb47U,
  0x3e49a8723e1eb05eU, 0x3e087118be8b4d7dU, 0xbdd76e013eacbfa2U, 0xbd5e33a5be033990U,
  0x3e52ec953e046c16U, 0xbdd27d3d3d3ea953U, 0xbd8b045b3d94c55fU, 0xbe8af8233ea39679U,
  0xbeb40aaebdc24ae1U, 0xbdff2d24be0de34dU, 0x3d4e9d69be0c2d64U, 0xbdaedb413e8a6ca5U,
  0xbd750884be121ca4U, 0x3df856d93df69249U, 0xbdcc26e23ecf98bfU, 0x3e632a8cbe9302bbU,
  0xbea298ffbd63077eU, 0xbe5d5c9e3e8e18d8U, 0xbe2f24943e123a86U, 0xbe458024bcc9c5deU,
  0x3c58f93b3dc5b662U, 0xba9a9bf9be9b0421U, 0xbe6128953e859b27U, 0xbed6f6afbea55fbeU,
  0x3e3d38b3bdde99a5U, 0x3e00f7423e2c1929U, 0x3e89e115be9fd4c3U, 0x3e9a70c9be11720aU,
  0x3d984d613eab998dU, 0x3e91e0b93e14fee8U, 0x3e1a6ed1be149492U, 0x3d8b6fba3ee33676U,
  0xbe833499bde8d664U, 0xbce29c113d3df450U, 0xbe65cef3be4ec465U, 0x3e150063be522bd3U,
  0x3e95bb723e2a0c47U, 0xbdabe7d7bcf95831U, 0x3e91f5c53dfa787dU, 0x3e671f953e09bf6bU,
  0x3d8f56663b9a9478U, 0xbe6c6c46bbd7019fU, 0xbe326537bd44c4deU, 0x3d0fe89f3ec5aebaU,
  0x3e2faec63e160fa3U, 0xbd552242be67a4f1U, 0xbe3c55ea3e19d3c2U, 0xbdb5a1f93d98e3e8U,
  0xbdb4bc923d824f53U, 0x3e3e6eb53e249caeU, 0x3ca87842be10c22aU, 0xbdccc7993d6276d4U,
  0x3f46c1993d207b46U, 0x3ef0d29abea58c9aU, 0xbebd2bf9bd1b5be5U, 0x3e652ac1bccd0cb1U,
  0x3db61b21bcb08ac4U, 0x3e9fc9113e928103U, 0xbec97f513bffdb72U, 0xbc696263bdc39118U,
  0xbf294996bdb2a641U, 0xbd536f27bd412b41U, 0x3db83218be914c13U, 0x3cde5b3f3da02360U,
  0x3b0f541abda51211U, 0xbc8cebda3e7be039U, 0x3c8454c4bdef9881U, 0xbcd7298dbc4e3e2eU,
  0xbf019d94bde6423dU, 0xbe477fb53d74fafcU, 0x3da43dfd3e167902U, 0xbef7f140be958004U,
  0x3e0386ee3e3c55f9U, 0xbd4f8d6b3d838dd2U, 0xbc003b853e871845U, 0x3dd66b79bd7f5363U,
  0xbc96ba3b3dcc3cf7U, 0xbc4d74c0bdac3695U, 0xbd7839ac3ec07fcfU, 0xbee8d5acbbae72ceU,
  0x3e121cf13f0e7e51U, 0x3d82bac53c92e386U, 0xbd3c8d29bdbccd22U, 0xbd2548c73e6556e3U,
  0xbaa3150bbb105830U, 0xbe74aed5befe58b5U, 0x3e938a643dccbdf3U, 0x3c737dca3c93f242U,
  0xbdc725a5bd25c07bU, 0xbc8b78d0bd27ff51U, 0xbf1b1a50be1489c6U, 0xbda55f3f3ea739baU,
  0xbcd21ddb3b57009aU, 0x3d192b3b3bd29360U, 0xbcfbf138be781ec4U, 0x3d8fa00b3d3ae49cU,
  0x3cbc5900bca71a79U, 0x3ceaff33bea396e5U, 0x3e8cfc793e3c0a1eU, 0xbceb997d3e3a33f1U,
  0xbe46d599be38266fU, 0xbdcf440c3b84a142U, 0x3e32798cbe1cdb0eU, 0x3f497b79be21cd54U,
  0x3cd6ac58befa856cU, 0x3e0c43a33c08d2d0U, 0x3dba7da73d1c0098U, 0x3dadbe72be0a501dU,
  0xbe031d4f3ae55078U, 0x3de7f9653cab2cf8U, 0xbdfbea17bc178dc5U, 0x3e849d4dbf3b06bfU,
  0x3c0d98173ec4abf3U, 0x3e95dbb23dd4220cU, 0xbdbe9ed0bde967faU, 0xbec0edd83ea2059aU,
  0x3e871442bc3f7dd1U, 0xbedaa9afbe878d74U, 0xbea6ff2a3ee99fe6U, 0x3ed1971bbeb660ddU,
  0xbd87eb2dbf1e4e05U, 0x3f0594e73f05ff99U, 0xbdef1d6cbcca07acU, 0xbc6de2dcbda212e7U,
  0xbfa477b5bda4a6f0U, 0xbdfeb578bd2667c4U, 0x3d6f840cbe609c45U, 0xbf37737c3f191a77U,
  0x3e0663d5bd664247U, 0xbe28877b3e075d44U, 0xbd7de2bc3f5938c5U, 0xbd31ca283d837ae2U,
  0xbf0f0eb83d397079U, 0xbd4516963dcaf704U, 0xbe7e021b3dae0383U, 0xbe4cbdedbec630c4U,
  0xbc8523a93e83b5c5U, 0xbd38438f3ec9142eU, 0xbe0a81043e0d6216U, 0x3c07dcfabe8a249fU,
  0xb931b7923e7930bfU, 0x3e7d2f1f3ec12da9U, 0xbefe6f87be209124U, 0xbec63409bebe23d2U,
  0xbe58bbc93eec4ac8U, 0xbe4aba76bdee0e73U, 0xbe61b567bd2acf24U, 0x3dbb7fd4bf39c124U,
  0xbe091c5cbd43cb7cU, 0x3e6252543cd083cfU, 0x3ebbcaf7be564ee1U, 0xbe186bc6beb3058bU,
  0xbe2878d03ea612eeU, 0xbe3e5921be1dcba4U, 0xbe3de0e6bf5d474bU, 0xbeb1eeba3ebf2e5cU,
  0x3c3546ec3ec467edU, 0xbd76e672be03253bU, 0x3c423759bef675b2U, 0x3df6157e3cba7e57U,
  0x3ece7701be36627dU, 0xbd2451e63e91270cU, 0x3e97d7713e7fc403U, 0xbef7c8f03ea3df9bU,
  0xbeb1e95bbeb54e9cU, 0xbe51a8e7be5ada86U, 0x3a5acac0bea99dc4U, 0xbc39347b3dd868aeU,
  0xbd031485be81c124U, 0xbd4582aebd23567aU, 0x3e4e80e23cb78e28U, 0x3daa9a75beae197bU,
  0xbdd469153e9cbb5cU, 0xbdf3c6b7bf17d9bdU, 0xbdde4dfabec3015aU, 0xbf0ac670bf23a8b4U,
  0xbdc2c1ab3ac6c7b6U, 0x3dc526163dae46d9U, 0x3d90ac7b3d5d7dfeU, 0xbe1d773c3da6c5b3U,
  0x3ec672e7bcffac24U, 0xbd316c94bdc2357cU, 0xbe02920b3e3870c5U, 0x3df8a7bfbe3a89a1U,
  0xbc92c2e8bea2fb21U, 0x3ee3dcc03d623c0eU, 0xbe994c523cc57439U, 0xbd6f4aa83e147fe2U,
  0xbf1546ec3cf63a07U, 0xbe3561b9bdbfe555U, 0xb845414abe8da2c6U, 0xbdb973d73d8e7bd5U,
  0x3de8b883bd112abcU, 0xbe13e3043c87cef1U, 0x3dc2e4913dd57af6U, 0x3e0050953d5d854eU,
  0xbec4636bbdcc18eaU, 0xbe8a4370bddd1578U, 0xbdf51ad3bd79ad02U, 0xbcf46b02bebb5b3aU,
  0xbd5a191d3db15120U, 0x3d842f473c959246U, 0x3db0a15a3e8f7ccdU, 0xbc46a376bd99d1c0U,
  0x3d83fba73dbd38b3U, 0x3de4821c3d595d08U, 0xbdc964823cf4e80aU, 0xbe907976bd5ab97fU,
  0xbdc2d1c53e9e57c8U, 0x3dce0ffebe3b4709U, 0x3c6ba9e4bdae2851U, 0x3d865f15be482bf8U,
  0xbcf43da9bdcbfcabU, 0xbdd6ea423d6b5497U, 0x3eaf61243c2866d4U, 0xbca99bf6be60edc3U,
  0x3d14c911bc26eaf9U, 0x3e8f064e3db98a09U, 0xbeb177ccbe1b49c5U, 0xbc9f6bf43e82f426U,
  0xbd1e7ced3dac26c3U, 0x3c1a87bbbe07c7cfU, 0xbe729bbbbe8061deU, 0x3d900a903c756d50U,
  0x3d092c683e3abcedU, 0x3ca242623db135b8U, 0x3ef7900d3cc64a03U, 0xbc747f613dec9afbU,
  0xbee21ecebe772a7eU, 0xbeaf68743d3c5047U, 0x3dc7c2d2bd7feb36U, 0x3eae0c80bc0ebf47U,
  0x3d476d6c3d1d804bU, 0x3e12f9ae3e21bbbcU, 0x3de2a177bc2672edU, 0xbd37f207bcffb6c8U,
  0xbcf4c7c5bdd23c29U, 0x3eeabb9f3cf039afU, 0xbcaf2945be1569e9U, 0xbe21dce2bed8734fU,
  0x3c905754bdc908b2U, 0x3e9779a83e7b7b44U, 0x3decf0a33d7c4db3U, 0xbda94a513ec36a31U,
  0x3e8acb403e12632cU, 0xbe7d2ce8befae959U, 0xbf0411873e86bd64U, 0xbdaa7317be9d2965U,
  0xbd6e441bbebb3a77U, 0x3ec35e153d8e9f45U, 0xbe83f8253e462a5cU, 0xbc6034c43e6862e6U,
  0xbf254750bcff8aaaU, 0xbeac2920bd9ed529U, 0xbdcdcf73be94076bU, 0xbd94b4423e899660U,
  0x3d9d8f0cbcc9076cU, 0xbe6aefce3d93513fU, 0x3dbfb8843e0d255eU, 0x3e554822bd691e53U,
  0xbeadf75a3d65011eU, 0xbe42b5a7be3780d2U, 0xbe268b0fbc4367b0U, 0xbd38f817be843e7dU,
  0x3e46b4203d943274U, 0xbd98a8bfbe8de832U, 0x3e1ac7013e1b17dcU, 0x3db7c805be0aa26dU,
  0x3e05866d3e1a5689U, 0x3dce8740bda6eea7U, 0x3cc2e9c53e804f5cU, 0xbe719f1b3e06ff74U,
  0x3d8b57153ea9bc58U, 0x3e991f87be6be1c1U, 0x3e544ae8ba8e537eU, 0x3e440257bdcf6a1dU,
  0xbdcc1f28bda48f6fU, 0xbe63c38d3de32d90U, 0x3ea403613d9b5445U, 0x3eb7acd7bd7d6becU,
  0xbe5fdb943d9989faU, 0x3ecc1ddc3e05ff6eU, 0xbed8cbadbe2d8338U, 0xbde9e8a43ea756cfU,
  0x3d84bd6d3d683acfU, 0xbe1727583cd8355cU, 0xbea9e63f3cd0b0f2U, 0xbd9deb8b3d883476U,
  0x3d2d4dd63e09dcfeU, 0xbdcbc261bd970855U, 0x3eda5beb3ed43cf0U, 0xbe22e9483ed8ccb8U,
  0xbeab201bbe1f8c55U, 0xbe4baf103de84b48U, 0xbdfadeaf3d463fb9U, 0x3f5089a9bd8b700fU,
  0xbd8ada8d3f2c3d48U, 0x3e8a572f3e19bd8cU, 0x3e3c76083d6ff343U, 0xbdbf56ebbe667357U,
  0x3c83560cbde47c16U, 0x3f2118f43e7e2255U, 0xbd55011f3ca8f67fU, 0x3dddc784bedce0a8U,
  0xbe245f45bddc52b8U, 0xbdac4e973c6f21edU, 0xbd3cbf88be74705fU, 0xbe9cb9f1bd37bb7fU,
  0xbbcd5510bdb2c7caU, 0xbe6d16603de519e1U, 0x3ea2ff0c3db19d80U, 0x3dcf0d843df1ac20U,
  0xbce4e27cbd58c6e1U, 0x3c7e74b1be645310U, 0x3eae5793be401b39U, 0x3e77d693bde0feb6U,
  0x3e4cf78abc78ac43U, 0x3e9c92293eb65fe3U, 0x3e4adca63e0d63c3U, 0x3b032c2f3e45bc0bU,
  0x3c9c9d80bd347df6U, 0x3e6d94cdbe976337U, 0x3a35e7713d3b262eU, 0x3d416bdabe4b952bU,
  0x3e674df93cac7a3bU, 0xbdd8b5f63d12a55cU, 0xbd0a8cbd3da57005U, 0xbe0307903e779dd3U,
  0xbe2df037be0ae893U, 0xbd4a6c19bd16ed7aU, 0x3cb2ee1cbe80018dU, 0xbe3fbc013edb1951U,
  0xbd94504dbed3a48bU, 0x3c4754953cc89d93U, 0xbe2df707bd6651ebU, 0x3df82196be9d1f82U,
  0xbd3434ecbe24c515U, 0xbe13e3473e37aad1U, 0xbc3917083dd61912U, 0xbdb42f77bd86dc39U,
  0xbce1a59abca2c117U, 0x3d81ea41bd71e309U, 0xbdfeb3063bfaff18U, 0xbe516b68be91d937U,
  0x3da3d7d2be8da357U, 0xbda49e283e91d57aU, 0x3e916f6f3ca881a4U, 0x3e846b60be718ee5U,
  0x3ce62ddc3e280962U, 0x3eb5b5d53e80e4d9U, 0x3db0dfa5be03f144U, 0x3d3718fa3eadb278U,
  0xbe430cc2be011f4cU, 0x3d914ff73da410ffU, 0xbd8f808ebe64c02fU, 0x3e8076a7bed37299U,
